[PAD] 0
[unused1] 1
[unused2] 2
[unused3] 3
[unused4] 4
[unused5] 5
[unused6] 6
[unused7] 7
[unused8] 8
[unused9] 9
[unused10] 10
[unused11] 11
[unused12] 12
[unused13] 13
[unused14] 14
[unused15] 15
[unused16] 16
[unused17] 17
[unused18] 18
[unused19] 19
[unused20] 20
[unused21] 21
[unused22] 22
[unused23] 23
[unused24] 24
[unused25] 25
[unused26] 26
[unused27] 27
[unused28] 28
[unused29] 29
[unused30] 30
[unused31] 31
[unused32] 32
[unused33] 33
[unused34] 34
[unused35] 35
[unused36] 36
[unused37] 37
[unused38] 38
[unused39] 39
[unused40] 40
[unused41] 41
[unused42] 42
[unused43] 43
[unused44] 44
[unused45] 45
[unused46] 46
[unused47] 47
[unused48] 48
[unused49] 49
[unused50] 50
[unused51] 51
[unused52] 52
[unused53] 53
[unused54] 54
[unused55] 55
[unused56] 56
[unused57] 57
[unused58] 58
[unused59] 59
[unused60] 60
[unused61] 61
[unused62] 62
[unused63] 63
[unused64] 64
[unused65] 65
[unused66] 66
[unused67] 67
[unused68] 68
[unused69] 69
[unused70] 70
[unused71] 71
[unused72] 72
[unused73] 73
[unused74] 74
[unused75] 75
[unused76] 76
[unused77] 77
[unused78] 78
[unused79] 79
[unused80] 80
[unused81] 81
[unused82] 82
[unused83] 83
[unused84] 84
[unused85] 85
[unused86] 86
[unused87] 87
[unused88] 88
[unused89] 89
[unused90] 90
[unused91] 91
[unused92] 92
[unused93] 93
[unused94] 94
[unused95] 95
[unused96] 96
[unused97] 97
[unused98] 98
[unused99] 99
[UNK] 100
[CLS] 101
[SEP] 102
[MASK] 103
<S> 104
<T> 105
! 106
" 107
# 108
$ 109
% 110
& 111
' 112
( 113
) 114
* 115
+ 116
, 117
- 118
. 119
/ 120
0 121
1 122
2 123
3 124
4 125
5 126
6 127
7 128
8 129
9 130
: 131
; 132
< 133
= 134
> 135
? 136
@ 137
[ 138
\ 139
] 140
^ 141
_ 142
a 143
b 144
c 145
d 146
e 147
f 148
g 149
h 150
i 151
j 152
k 153
l 154
m 155
n 156
o 157
p 158
q 159
r 160
s 161
t 162
u 163
v 164
w 165
x 166
y 167
z 168
{ 169
| 170
} 171
~ 172
£ 173
¤ 174
¥ 175
§ 176
© 177
« 178
® 179
° 180
± 181
² 182
³ 183
µ 184
· 185
¹ 186
º 187
» 188
¼ 189
× 190
ß 191
æ 192
÷ 193
ø 194
đ 195
ŋ 196
ɔ 197
ə 198
ɡ 199
ʰ 200
ˇ 201
ˈ 202
ˊ 203
ˋ 204
ˍ 205
ː 206
˙ 207
˚ 208
ˢ 209
α 210
β 211
γ 212
δ 213
ε 214
η 215
θ 216
ι 217
κ 218
λ 219
μ 220
ν 221
ο 222
π 223
ρ 224
ς 225
σ 226
τ 227
υ 228
φ 229
χ 230
ψ 231
ω 232
а 233
б 234
в 235
г 236
д 237
е 238
ж 239
з 240
и 241
к 242
л 243
м 244
н 245
о 246
п 247
р 248
с 249
т 250
у 251
ф 252
х 253
ц 254
ч 255
ш 256
ы 257
ь 258
я 259
і 260
ا 261
ب 262
ة 263
ت 264
د 265
ر 266
س 267
ع 268
ل 269
م 270
ن 271
ه 272
و 273
ي 274
۩ 275
ก 276
ง 277
น 278
ม 279
ย 280
ร 281
อ 282
า 283
เ 284
๑ 285
་ 286
ღ 287
ᄀ 288
ᄁ 289
ᄂ 290
ᄃ 291
ᄅ 292
ᄆ 293
ᄇ 294
ᄈ 295
ᄉ 296
ᄋ 297
ᄌ 298
ᄎ 299
ᄏ 300
ᄐ 301
ᄑ 302
ᄒ 303
ᅡ 304
ᅢ 305
ᅣ 306
ᅥ 307
ᅦ 308
ᅧ 309
ᅨ 310
ᅩ 311
ᅪ 312
ᅬ 313
ᅭ 314
ᅮ 315
ᅯ 316
ᅲ 317
ᅳ 318
ᅴ 319
ᅵ 320
ᆨ 321
ᆫ 322
ᆯ 323
ᆷ 324
ᆸ 325
ᆺ 326
ᆻ 327
ᆼ 328
ᗜ 329
ᵃ 330
ᵉ 331
ᵍ 332
ᵏ 333
ᵐ 334
ᵒ 335
ᵘ 336
‖ 337
„ 338
† 339
• 340
‥ 341
‧ 342
‰ 343
′ 344
″ 345
‹ 346
› 347
※ 348
‿ 349
⁄ 350
ⁱ 351
⁺ 352
ⁿ 353
₁ 354
₂ 355
₃ 356
₄ 357
€ 358
℃ 359
№ 360
™ 361
ⅰ 362
ⅱ 363
ⅲ 364
ⅳ 365
ⅴ 366
← 367
↑ 368
→ 369
↓ 370
↔ 371
↗ 372
↘ 373
⇒ 374
∀ 375
− 376
∕ 377
∙ 378
√ 379
∞ 380
∟ 381
∠ 382
∣ 383
∥ 384
∩ 385
∮ 386
∶ 387
∼ 388
∽ 389
≈ 390
≒ 391
≡ 392
≤ 393
≥ 394
≦ 395
≧ 396
≪ 397
≫ 398
⊙ 399
⋅ 400
⋈ 401
⋯ 402
⌒ 403
① 404
② 405
③ 406
④ 407
⑤ 408
⑥ 409
⑦ 410
⑧ 411
⑨ 412
⑩ 413
⑴ 414
⑵ 415
⑶ 416
⑷ 417
⑸ 418
⒈ 419
⒉ 420
⒊ 421
⒋ 422
ⓒ 423
ⓔ 424
ⓘ 425
─ 426
━ 427
│ 428
┃ 429
┅ 430
┆ 431
┊ 432
┌ 433
└ 434
├ 435
┣ 436
═ 437
║ 438
╚ 439
╞ 440
╠ 441
╭ 442
╮ 443
╯ 444
╰ 445
╱ 446
╳ 447
▂ 448
▃ 449
▅ 450
▇ 451
█ 452
▉ 453
▋ 454
▌ 455
▍ 456
▎ 457
■ 458
□ 459
▪ 460
▫ 461
▬ 462
▲ 463
△ 464
▶ 465
► 466
▼ 467
▽ 468
◆ 469
◇ 470
○ 471
◎ 472
● 473
◕ 474
◠ 475
◢ 476
◤ 477
☀ 478
★ 479
☆ 480
☕ 481
☞ 482
☺ 483
☼ 484
♀ 485
♂ 486
♠ 487
♡ 488
♣ 489
♥ 490
♦ 491
♪ 492
♫ 493
♬ 494
✈ 495
✔ 496
✕ 497
✖ 498
✦ 499
✨ 500
✪ 501
✰ 502
✿ 503
❀ 504
❤ 505
➜ 506
➤ 507
⦿ 508
、 509
。 510
〃 511
々 512
〇 513
〈 514
〉 515
《 516
》 517
「 518
」 519
『 520
』 521
【 522
】 523
〓 524
〔 525
〕 526
〖 527
〗 528
〜 529
〝 530
〞 531
ぁ 532
あ 533
ぃ 534
い 535
う 536
ぇ 537
え 538
お 539
か 540
き 541
く 542
け 543
こ 544
さ 545
し 546
す 547
せ 548
そ 549
た 550
ち 551
っ 552
つ 553
て 554
と 555
な 556
に 557
ぬ 558
ね 559
の 560
は 561
ひ 562
ふ 563
へ 564
ほ 565
ま 566
み 567
む 568
め 569
も 570
ゃ 571
や 572
ゅ 573
ゆ 574
ょ 575
よ 576
ら 577
り 578
る 579
れ 580
ろ 581
わ 582
を 583
ん 584
゜ 585
ゝ 586
ァ 587
ア 588
ィ 589
イ 590
ゥ 591
ウ 592
ェ 593
エ 594
ォ 595
オ 596
カ 597
キ 598
ク 599
ケ 600
コ 601
サ 602
シ 603
ス 604
セ 605
ソ 606
タ 607
チ 608
ッ 609
ツ 610
テ 611
ト 612
ナ 613
ニ 614
ヌ 615
ネ 616
ノ 617
ハ 618
ヒ 619
フ 620
ヘ 621
ホ 622
マ 623
ミ 624
ム 625
メ 626
モ 627
ャ 628
ヤ 629
ュ 630
ユ 631
ョ 632
ヨ 633
ラ 634
リ 635
ル 636
レ 637
ロ 638
ワ 639
ヲ 640
ン 641
ヶ 642
・ 643
ー 644
ヽ 645
ㄅ 646
ㄆ 647
ㄇ 648
ㄉ 649
ㄋ 650
ㄌ 651
ㄍ 652
ㄎ 653
ㄏ 654
ㄒ 655
ㄚ 656
ㄛ 657
ㄞ 658
ㄟ 659
ㄢ 660
ㄤ 661
ㄥ 662
ㄧ 663
ㄨ 664
ㆍ 665
㈦ 666
㊣ 667
㎡ 668
㗎 669
一 670
丁 671
七 672
万 673
丈 674
三 675
上 676
下 677
不 678
与 679
丐 680
丑 681
专 682
且 683
丕 684
世 685
丘 686
丙 687
业 688
丛 689
东 690
丝 691
丞 692
丟 693
両 694
丢 695
两 696
严 697
並 698
丧 699
丨 700
个 701
丫 702
中 703
丰 704
串 705
临 706
丶 707
丸 708
丹 709
为 710
主 711
丼 712
丽 713
举 714
丿 715
乂 716
乃 717
久 718
么 719
义 720
之 721
乌 722
乍 723
乎 724
乏 725
乐 726
乒 727
乓 728
乔 729
乖 730
乗 731
乘 732
乙 733
乜 734
九 735
乞 736
也 737
习 738
乡 739
书 740
乩 741
买 742
乱 743
乳 744
乾 745
亀 746
亂 747
了 748
予 749
争 750
事 751
二 752
于 753
亏 754
云 755
互 756
五 757
井 758
亘 759
亙 760
亚 761
些 762
亜 763
亞 764
亟 765
亡 766
亢 767
交 768
亥 769
亦 770
产 771
亨 772
亩 773
享 774
京 775
亭 776
亮 777
亲 778
亳 779
亵 780
人 781
亿 782
什 783
仁 784
仃 785
仄 786
仅 787
仆 788
仇 789
今 790
介 791
仍 792
从 793
仏 794
仑 795
仓 796
仔 797
仕 798
他 799
仗 800
付 801
仙 802
仝 803
仞 804
仟 805
代 806
令 807
以 808
仨 809
仪 810
们 811
仮 812
仰 813
仲 814
件 815
价 816
任 817
份 818
仿 819
企 820
伉 821
伊 822
伍 823
伎 824
伏 825
伐 826
休 827
伕 828
众 829
优 830
伙 831
会 832
伝 833
伞 834
伟 835
传 836
伢 837
伤 838
伦 839
伪 840
伫 841
伯 842
估 843
伴 844
伶 845
伸 846
伺 847
似 848
伽 849
佃 850
但 851
佇 852
佈 853
位 854
低 855
住 856
佐 857
佑 858
体 859
佔 860
何 861
佗 862
佘 863
余 864
佚 865
佛 866
作 867
佝 868
佞 869
佟 870
你 871
佢 872
佣 873
佤 874
佥 875
佩 876
佬 877
佯 878
佰 879
佳 880
併 881
佶 882
佻 883
佼 884
使 885
侃 886
侄 887
來 888
侈 889
例 890
侍 891
侏 892
侑 893
侖 894
侗 895
供 896
依 897
侠 898
価 899
侣 900
侥 901
侦 902
侧 903
侨 904
侬 905
侮 906
侯 907
侵 908
侶 909
侷 910
便 911
係 912
促 913
俄 914
俊 915
俎 916
俏 917
俐 918
俑 919
俗 920
俘 921
俚 922
保 923
俞 924
俟 925
俠 926
信 927
俨 928
俩 929
俪 930
俬 931
俭 932
修 933
俯 934
俱 935
俳 936
俸 937
俺 938
俾 939
倆 940
倉 941
個 942
倌 943
倍 944
倏 945
們 946
倒 947
倔 948
倖 949
倘 950
候 951
倚 952
倜 953
借 954
倡 955
値 956
倦 957
倩 958
倪 959
倫 960
倬 961
倭 962
倶 963
债 964
值 965
倾 966
偃 967
假 968
偈 969
偉 970
偌 971
偎 972
偏 973
偕 974
做 975
停 976
健 977
側 978
偵 979
偶 980
偷 981
偻 982
偽 983
偿 984
傀 985
傅 986
傍 987
傑 988
傘 989
備 990
傚 991
傢 992
傣 993
傥 994
储 995
傩 996
催 997
傭 998
傲 999
傳 1000
債 1001
傷 1002
傻 1003
傾 1004
僅 1005
働 1006
像 1007
僑 1008
僕 1009
僖 1010
僚 1011
僥 1012
僧 1013
僭 1014
僮 1015
僱 1016
僵 1017
價 1018
僻 1019
儀 1020
儂 1021
億 1022
儆 1023
儉 1024
儋 1025
儒 1026
儕 1027
儘 1028
償 1029
儡 1030
優 1031
儲 1032
儷 1033
儼 1034
儿 1035
兀 1036
允 1037
元 1038
兄 1039
充 1040
兆 1041
兇 1042
先 1043
光 1044
克 1045
兌 1046
免 1047
児 1048
兑 1049
兒 1050
兔 1051
兖 1052
党 1053
兜 1054
兢 1055
入 1056
內 1057
全 1058
兩 1059
八 1060
公 1061
六 1062
兮 1063
兰 1064
共 1065
兲 1066
关 1067
兴 1068
兵 1069
其 1070
具 1071
典 1072
兹 1073
养 1074
兼 1075
兽 1076
冀 1077
内 1078
円 1079
冇 1080
冈 1081
冉 1082
冊 1083
册 1084
再 1085
冏 1086
冒 1087
冕 1088
冗 1089
写 1090
军 1091
农 1092
冠 1093
冢 1094
冤 1095
冥 1096
冨 1097
冪 1098
冬 1099
冯 1100
冰 1101
冲 1102
决 1103
况 1104
冶 1105
冷 1106
冻 1107
冼 1108
冽 1109
冾 1110
净 1111
凄 1112
准 1113
凇 1114
凈 1115
凉 1116
凋 1117
凌 1118
凍 1119
减 1120
凑 1121
凛 1122
凜 1123
凝 1124
几 1125
凡 1126
凤 1127
処 1128
凪 1129
凭 1130
凯 1131
凰 1132
凱 1133
凳 1134
凶 1135
凸 1136
凹 1137
出 1138
击 1139
函 1140
凿 1141
刀 1142
刁 1143
刃 1144
分 1145
切 1146
刈 1147
刊 1148
刍 1149
刎 1150
刑 1151
划 1152
列 1153
刘 1154
则 1155
刚 1156
创 1157
初 1158
删 1159
判 1160
別 1161
刨 1162
利 1163
刪 1164
别 1165
刮 1166
到 1167
制 1168
刷 1169
券 1170
刹 1171
刺 1172
刻 1173
刽 1174
剁 1175
剂 1176
剃 1177
則 1178
剉 1179
削 1180
剋 1181
剌 1182
前 1183
剎 1184
剐 1185
剑 1186
剔 1187
剖 1188
剛 1189
剜 1190
剝 1191
剣 1192
剤 1193
剥 1194
剧 1195
剩 1196
剪 1197
副 1198
割 1199
創 1200
剷 1201
剽 1202
剿 1203
劃 1204
劇 1205
劈 1206
劉 1207
劊 1208
劍 1209
劏 1210
劑 1211
力 1212
劝 1213
办 1214
功 1215
加 1216
务 1217
劣 1218
动 1219
助 1220
努 1221
劫 1222
劭 1223
励 1224
劲 1225
劳 1226
労 1227
劵 1228
効 1229
劾 1230
势 1231
勁 1232
勃 1233
勇 1234
勉 1235
勋 1236
勐 1237
勒 1238
動 1239
勖 1240
勘 1241
務 1242
勛 1243
勝 1244
勞 1245
募 1246
勢 1247
勤 1248
勧 1249
勳 1250
勵 1251
勸 1252
勺 1253
勻 1254
勾 1255
勿 1256
匀 1257
包 1258
匆 1259
匈 1260
匍 1261
匐 1262
匕 1263
化 1264
北 1265
匙 1266
匝 1267
匠 1268
匡 1269
匣 1270
匪 1271
匮 1272
匯 1273
匱 1274
匹 1275
区 1276
医 1277
匾 1278
匿 1279
區 1280
十 1281
千 1282
卅 1283
升 1284
午 1285
卉 1286
半 1287
卍 1288
华 1289
协 1290
卑 1291
卒 1292
卓 1293
協 1294
单 1295
卖 1296
南 1297
単 1298
博 1299
卜 1300
卞 1301
卟 1302
占 1303
卡 1304
卢 1305
卤 1306
卦 1307
卧 1308
卫 1309
卮 1310
卯 1311
印 1312
危 1313
即 1314
却 1315
卵 1316
卷 1317
卸 1318
卻 1319
卿 1320
厂 1321
厄 1322
厅 1323
历 1324
厉 1325
压 1326
厌 1327
厕 1328
厘 1329
厚 1330
厝 1331
原 1332
厢 1333
厥 1334
厦 1335
厨 1336
厩 1337
厭 1338
厮 1339
厲 1340
厳 1341
去 1342
县 1343
叁 1344
参 1345
參 1346
又 1347
叉 1348
及 1349
友 1350
双 1351
反 1352
収 1353
发 1354
叔 1355
取 1356
受 1357
变 1358
叙 1359
叛 1360
叟 1361
叠 1362
叡 1363
叢 1364
口 1365
古 1366
句 1367
另 1368
叨 1369
叩 1370
只 1371
叫 1372
召 1373
叭 1374
叮 1375
可 1376
台 1377
叱 1378
史 1379
右 1380
叵 1381
叶 1382
号 1383
司 1384
叹 1385
叻 1386
叼 1387
叽 1388
吁 1389
吃 1390
各 1391
吆 1392
合 1393
吉 1394
吊 1395
吋 1396
同 1397
名 1398
后 1399
吏 1400
吐 1401
向 1402
吒 1403
吓 1404
吕 1405
吖 1406
吗 1407
君 1408
吝 1409
吞 1410
吟 1411
吠 1412
吡 1413
否 1414
吧 1415
吨 1416
吩 1417
含 1418
听 1419
吭 1420
吮 1421
启 1422
吱 1423
吳 1424
吴 1425
吵 1426
吶 1427
吸 1428
吹 1429
吻 1430
吼 1431
吽 1432
吾 1433
呀 1434
呂 1435
呃 1436
呆 1437
呈 1438
告 1439
呋 1440
呎 1441
呐 1442
呓 1443
呕 1444
呗 1445
员 1446
呛 1447
呜 1448
呢 1449
呤 1450
呦 1451
周 1452
呱 1453
呲 1454
味 1455
呵 1456
呷 1457
呸 1458
呻 1459
呼 1460
命 1461
咀 1462
咁 1463
咂 1464
咄 1465
咆 1466
咋 1467
和 1468
咎 1469
咏 1470
咐 1471
咒 1472
咔 1473
咕 1474
咖 1475
咗 1476
咘 1477
咙 1478
咚 1479
咛 1480
咣 1481
咤 1482
咦 1483
咧 1484
咨 1485
咩 1486
咪 1487
咫 1488
咬 1489
咭 1490
咯 1491
咱 1492
咲 1493
咳 1494
咸 1495
咻 1496
咽 1497
咿 1498
哀 1499
品 1500
哂 1501
哄 1502
哆 1503
哇 1504
哈 1505
哉 1506
哋 1507
哌 1508
响 1509
哎 1510
哏 1511
哐 1512
哑 1513
哒 1514
哔 1515
哗 1516
哟 1517
員 1518
哥 1519
哦 1520
哧 1521
哨 1522
哩 1523
哪 1524
哭 1525
哮 1526
哲 1527
哺 1528
哼 1529
哽 1530
唁 1531
唄 1532
唆 1533
唇 1534
唉 1535
唏 1536
唐 1537
唑 1538
唔 1539
唠 1540
唤 1541
唧 1542
唬 1543
售 1544
唯 1545
唰 1546
唱 1547
唳 1548
唷 1549
唸 1550
唾 1551
啃 1552
啄 1553
商 1554
啉 1555
啊 1556
問 1557
啓 1558
啕 1559
啖 1560
啜 1561
啞 1562
啟 1563
啡 1564
啤 1565
啥 1566
啦 1567
啧 1568
啪 1569
啫 1570
啬 1571
啮 1572
啰 1573
啱 1574
啲 1575
啵 1576
啶 1577
啷 1578
啸 1579
啻 1580
啼 1581
啾 1582
喀 1583
喂 1584
喃 1585
善 1586
喆 1587
喇 1588
喉 1589
喊 1590
喋 1591
喎 1592
喏 1593
喔 1594
喘 1595
喙 1596
喚 1597
喜 1598
喝 1599
喟 1600
喧 1601
喪 1602
喫 1603
喬 1604
單 1605
喰 1606
喱 1607
喲 1608
喳 1609
喵 1610
営 1611
喷 1612
喹 1613
喺 1614
喻 1615
喽 1616
嗅 1617
嗆 1618
嗇 1619
嗎 1620
嗑 1621
嗒 1622
嗓 1623
嗔 1624
嗖 1625
嗚 1626
嗜 1627
嗝 1628
嗟 1629
嗡 1630
嗣 1631
嗤 1632
嗦 1633
嗨 1634
嗪 1635
嗬 1636
嗯 1637
嗰 1638
嗲 1639
嗳 1640
嗶 1641
嗷 1642
嗽 1643
嘀 1644
嘅 1645
嘆 1646
嘈 1647
嘉 1648
嘌 1649
嘍 1650
嘎 1651
嘔 1652
嘖 1653
嘗 1654
嘘 1655
嘚 1656
嘛 1657
嘜 1658
嘞 1659
嘟 1660
嘢 1661
嘣 1662
嘤 1663
嘧 1664
嘩 1665
嘭 1666
嘮 1667
嘯 1668
嘰 1669
嘱 1670
嘲 1671
嘴 1672
嘶 1673
嘸 1674
嘹 1675
嘻 1676
嘿 1677
噁 1678
噌 1679
噎 1680
噓 1681
噔 1682
噗 1683
噙 1684
噜 1685
噠 1686
噢 1687
噤 1688
器 1689
噩 1690
噪 1691
噬 1692
噱 1693
噴 1694
噶 1695
噸 1696
噹 1697
噻 1698
噼 1699
嚀 1700
嚇 1701
嚎 1702
嚏 1703
嚐 1704
嚓 1705
嚕 1706
嚟 1707
嚣 1708
嚥 1709
嚨 1710
嚮 1711
嚴 1712
嚷 1713
嚼 1714
囂 1715
囉 1716
囊 1717
囍 1718
囑 1719
囔 1720
囗 1721
囚 1722
四 1723
囝 1724
回 1725
囟 1726
因 1727
囡 1728
团 1729
団 1730
囤 1731
囧 1732
囪 1733
囫 1734
园 1735
困 1736
囱 1737
囲 1738
図 1739
围 1740
囹 1741
固 1742
国 1743
图 1744
囿 1745
圃 1746
圄 1747
圆 1748
圈 1749
國 1750
圍 1751
圏 1752
園 1753
圓 1754
圖 1755
團 1756
圜 1757
土 1758
圣 1759
圧 1760
在 1761
圩 1762
圭 1763
地 1764
圳 1765
场 1766
圻 1767
圾 1768
址 1769
坂 1770
均 1771
坊 1772
坍 1773
坎 1774
坏 1775
坐 1776
坑 1777
块 1778
坚 1779
坛 1780
坝 1781
坞 1782
坟 1783
坠 1784
坡 1785
坤 1786
坦 1787
坨 1788
坪 1789
坯 1790
坳 1791
坵 1792
坷 1793
垂 1794
垃 1795
垄 1796
型 1797
垒 1798
垚 1799
垛 1800
垠 1801
垢 1802
垣 1803
垦 1804
垩 1805
垫 1806
垭 1807
垮 1808
垵 1809
埂 1810
埃 1811
埋 1812
城 1813
埔 1814
埕 1815
埗 1816
域 1817
埠 1818
埤 1819
埵 1820
執 1821
埸 1822
培 1823
基 1824
埼 1825
堀 1826
堂 1827
堃 1828
堅 1829
堆 1830
堇 1831
堑 1832
堕 1833
堙 1834
堡 1835
堤 1836
堪 1837
堯 1838
堰 1839
報 1840
場 1841
堵 1842
堺 1843
堿 1844
塊 1845
塌 1846
塑 1847
塔 1848
塗 1849
塘 1850
塚 1851
塞 1852
塢 1853
塩 1854
填 1855
塬 1856
塭 1857
塵 1858
塾 1859
墀 1860
境 1861
墅 1862
墉 1863
墊 1864
墒 1865
墓 1866
増 1867
墘 1868
墙 1869
墜 1870
增 1871
墟 1872
墨 1873
墩 1874
墮 1875
墳 1876
墻 1877
墾 1878
壁 1879
壅 1880
壆 1881
壇 1882
壊 1883
壑 1884
壓 1885
壕 1886
壘 1887
壞 1888
壟 1889
壢 1890
壤 1891
壩 1892
士 1893
壬 1894
壮 1895
壯 1896
声 1897
売 1898
壳 1899
壶 1900
壹 1901
壺 1902
壽 1903
处 1904
备 1905
変 1906
复 1907
夏 1908
夔 1909
夕 1910
外 1911
夙 1912
多 1913
夜 1914
够 1915
夠 1916
夢 1917
夥 1918
大 1919
天 1920
太 1921
夫 1922
夭 1923
央 1924
夯 1925
失 1926
头 1927
夷 1928
夸 1929
夹 1930
夺 1931
夾 1932
奂 1933
奄 1934
奇 1935
奈 1936
奉 1937
奋 1938
奎 1939
奏 1940
奐 1941
契 1942
奔 1943
奕 1944
奖 1945
套 1946
奘 1947
奚 1948
奠 1949
奢 1950
奥 1951
奧 1952
奪 1953
奬 1954
奮 1955
女 1956
奴 1957
奶 1958
奸 1959
她 1960
好 1961
如 1962
妃 1963
妄 1964
妆 1965
妇 1966
妈 1967
妊 1968
妍 1969
妒 1970
妓 1971
妖 1972
妘 1973
妙 1974
妝 1975
妞 1976
妣 1977
妤 1978
妥 1979
妨 1980
妩 1981
妪 1982
妮 1983
妲 1984
妳 1985
妹 1986
妻 1987
妾 1988
姆 1989
姉 1990
姊 1991
始 1992
姍 1993
姐 1994
姑 1995
姒 1996
姓 1997
委 1998
姗 1999
姚 2000
姜 2001
姝 2002
姣 2003
姥 2004
姦 2005
姨 2006
姪 2007
姫 2008
姬 2009
姹 2010
姻 2011
姿 2012
威 2013
娃 2014
娄 2015
娅 2016
娆 2017
娇 2018
娉 2019
娑 2020
娓 2021
娘 2022
娛 2023
娜 2024
娟 2025
娠 2026
娣 2027
娥 2028
娩 2029
娱 2030
娲 2031
娴 2032
娶 2033
娼 2034
婀 2035
婁 2036
婆 2037
婉 2038
婊 2039
婕 2040
婚 2041
婢 2042
婦 2043
婧 2044
婪 2045
婭 2046
婴 2047
婵 2048
婶 2049
婷 2050
婺 2051
婿 2052
媒 2053
媚 2054
媛 2055
媞 2056
媧 2057
媲 2058
媳 2059
媽 2060
媾 2061
嫁 2062
嫂 2063
嫉 2064
嫌 2065
嫑 2066
嫔 2067
嫖 2068
嫘 2069
嫚 2070
嫡 2071
嫣 2072
嫦 2073
嫩 2074
嫲 2075
嫵 2076
嫻 2077
嬅 2078
嬉 2079
嬌 2080
嬗 2081
嬛 2082
嬢 2083
嬤 2084
嬪 2085
嬰 2086
嬴 2087
嬷 2088
嬸 2089
嬿 2090
孀 2091
孃 2092
子 2093
孑 2094
孔 2095
孕 2096
孖 2097
字 2098
存 2099
孙 2100
孚 2101
孛 2102
孜 2103
孝 2104
孟 2105
孢 2106
季 2107
孤 2108
学 2109
孩 2110
孪 2111
孫 2112
孬 2113
孰 2114
孱 2115
孳 2116
孵 2117
學 2118
孺 2119
孽 2120
孿 2121
宁 2122
它 2123
宅 2124
宇 2125
守 2126
安 2127
宋 2128
完 2129
宏 2130
宓 2131
宕 2132
宗 2133
官 2134
宙 2135
定 2136
宛 2137
宜 2138
宝 2139
实 2140
実 2141
宠 2142
审 2143
客 2144
宣 2145
室 2146
宥 2147
宦 2148
宪 2149
宫 2150
宮 2151
宰 2152
害 2153
宴 2154
宵 2155
家 2156
宸 2157
容 2158
宽 2159
宾 2160
宿 2161
寂 2162
寄 2163
寅 2164
密 2165
寇 2166
富 2167
寐 2168
寒 2169
寓 2170
寛 2171
寝 2172
寞 2173
察 2174
寡 2175
寢 2176
寥 2177
實 2178
寧 2179
寨 2180
審 2181
寫 2182
寬 2183
寮 2184
寰 2185
寵 2186
寶 2187
寸 2188
对 2189
寺 2190
寻 2191
导 2192
対 2193
寿 2194
封 2195
専 2196
射 2197
将 2198
將 2199
專 2200
尉 2201
尊 2202
尋 2203
對 2204
導 2205
小 2206
少 2207
尔 2208
尕 2209
尖 2210
尘 2211
尚 2212
尝 2213
尤 2214
尧 2215
尬 2216
就 2217
尴 2218
尷 2219
尸 2220
尹 2221
尺 2222
尻 2223
尼 2224
尽 2225
尾 2226
尿 2227
局 2228
屁 2229
层 2230
屄 2231
居 2232
屆 2233
屈 2234
屉 2235
届 2236
屋 2237
屌 2238
屍 2239
屎 2240
屏 2241
屐 2242
屑 2243
展 2244
屜 2245
属 2246
屠 2247
屡 2248
屢 2249
層 2250
履 2251
屬 2252
屯 2253
山 2254
屹 2255
屿 2256
岀 2257
岁 2258
岂 2259
岌 2260
岐 2261
岑 2262
岔 2263
岖 2264
岗 2265
岘 2266
岙 2267
岚 2268
岛 2269
岡 2270
岩 2271
岫 2272
岬 2273
岭 2274
岱 2275
岳 2276
岷 2277
岸 2278
峇 2279
峋 2280
峒 2281
峙 2282
峡 2283
峤 2284
峥 2285
峦 2286
峨 2287
峪 2288
峭 2289
峯 2290
峰 2291
峴 2292
島 2293
峻 2294
峽 2295
崁 2296
崂 2297
崆 2298
崇 2299
崎 2300
崑 2301
崔 2302
崖 2303
崗 2304
崙 2305
崛 2306
崧 2307
崩 2308
崭 2309
崴 2310
崽 2311
嵇 2312
嵊 2313
嵋 2314
嵌 2315
嵐 2316
嵘 2317
嵩 2318
嵬 2319
嵯 2320
嶂 2321
嶄 2322
嶇 2323
嶋 2324
嶙 2325
嶺 2326
嶼 2327
嶽 2328
巅 2329
巍 2330
巒 2331
巔 2332
巖 2333
川 2334
州 2335
巡 2336
巢 2337
工 2338
左 2339
巧 2340
巨 2341
巩 2342
巫 2343
差 2344
己 2345
已 2346
巳 2347
巴 2348
巷 2349
巻 2350
巽 2351
巾 2352
巿 2353
币 2354
市 2355
布 2356
帅 2357
帆 2358
师 2359
希 2360
帐 2361
帑 2362
帕 2363
帖 2364
帘 2365
帚 2366
帛 2367
帜 2368
帝 2369
帥 2370
带 2371
帧 2372
師 2373
席 2374
帮 2375
帯 2376
帰 2377
帳 2378
帶 2379
帷 2380
常 2381
帼 2382
帽 2383
幀 2384
幂 2385
幄 2386
幅 2387
幌 2388
幔 2389
幕 2390
幟 2391
幡 2392
幢 2393
幣 2394
幫 2395
干 2396
平 2397
年 2398
并 2399
幸 2400
幹 2401
幺 2402
幻 2403
幼 2404
幽 2405
幾 2406
广 2407
庁 2408
広 2409
庄 2410
庆 2411
庇 2412
床 2413
序 2414
庐 2415
库 2416
应 2417
底 2418
庖 2419
店 2420
庙 2421
庚 2422
府 2423
庞 2424
废 2425
庠 2426
度 2427
座 2428
庫 2429
庭 2430
庵 2431
庶 2432
康 2433
庸 2434
庹 2435
庾 2436
廁 2437
廂 2438
廃 2439
廈 2440
廉 2441
廊 2442
廓 2443
廖 2444
廚 2445
廝 2446
廟 2447
廠 2448
廢 2449
廣 2450
廬 2451
廳 2452
延 2453
廷 2454
建 2455
廿 2456
开 2457
弁 2458
异 2459
弃 2460
弄 2461
弈 2462
弊 2463
弋 2464
式 2465
弑 2466
弒 2467
弓 2468
弔 2469
引 2470
弗 2471
弘 2472
弛 2473
弟 2474
张 2475
弥 2476
弦 2477
弧 2478
弩 2479
弭 2480
弯 2481
弱 2482
張 2483
強 2484
弹 2485
强 2486
弼 2487
弾 2488
彅 2489
彆 2490
彈 2491
彌 2492
彎 2493
归 2494
当 2495
录 2496
彗 2497
彙 2498
彝 2499
形 2500
彤 2501
彥 2502
彦 2503
彧 2504
彩 2505
彪 2506
彫 2507
彬 2508
彭 2509
彰 2510
影 2511
彷 2512
役 2513
彻 2514
彼 2515
彿 2516
往 2517
征 2518
径 2519
待 2520
徇 2521
很 2522
徉 2523
徊 2524
律 2525
後 2526
徐 2527
徑 2528
徒 2529
従 2530
徕 2531
得 2532
徘 2533
徙 2534
徜 2535
從 2536
徠 2537
御 2538
徨 2539
復 2540
循 2541
徬 2542
微 2543
徳 2544
徴 2545
徵 2546
德 2547
徹 2548
徼 2549
徽 2550
心 2551
必 2552
忆 2553
忌 2554
忍 2555
忏 2556
忐 2557
忑 2558
忒 2559
忖 2560
志 2561
忘 2562
忙 2563
応 2564
忠 2565
忡 2566
忤 2567
忧 2568
忪 2569
快 2570
忱 2571
念 2572
忻 2573
忽 2574
忿 2575
怀 2576
态 2577
怂 2578
怅 2579
怆 2580
怎 2581
怏 2582
怒 2583
怔 2584
怕 2585
怖 2586
怙 2587
怜 2588
思 2589
怠 2590
怡 2591
急 2592
怦 2593
性 2594
怨 2595
怪 2596
怯 2597
怵 2598
总 2599
怼 2600
恁 2601
恃 2602
恆 2603
恋 2604
恍 2605
恐 2606
恒 2607
恕 2608
恙 2609
恚 2610
恢 2611
恣 2612
恤 2613
恥 2614
恨 2615
恩 2616
恪 2617
恫 2618
恬 2619
恭 2620
息 2621
恰 2622
恳 2623
恵 2624
恶 2625
恸 2626
恺 2627
恻 2628
恼 2629
恿 2630
悄 2631
悅 2632
悉 2633
悌 2634
悍 2635
悔 2636
悖 2637
悚 2638
悟 2639
悠 2640
患 2641
悦 2642
您 2643
悩 2644
悪 2645
悬 2646
悯 2647
悱 2648
悲 2649
悴 2650
悵 2651
悶 2652
悸 2653
悻 2654
悼 2655
悽 2656
情 2657
惆 2658
惇 2659
惊 2660
惋 2661
惑 2662
惕 2663
惘 2664
惚 2665
惜 2666
惟 2667
惠 2668
惡 2669
惦 2670
惧 2671
惨 2672
惩 2673
惫 2674
惬 2675
惭 2676
惮 2677
惯 2678
惰 2679
惱 2680
想 2681
惴 2682
惶 2683
惹 2684
惺 2685
愁 2686
愆 2687
愈 2688
愉 2689
愍 2690
意 2691
愕 2692
愚 2693
愛 2694
愜 2695
感 2696
愣 2697
愤 2698
愧 2699
愫 2700
愷 2701
愿 2702
慄 2703
慈 2704
態 2705
慌 2706
慎 2707
慑 2708
慕 2709
慘 2710
慚 2711
慟 2712
慢 2713
慣 2714
慧 2715
慨 2716
慫 2717
慮 2718
慰 2719
慳 2720
慵 2721
慶 2722
慷 2723
慾 2724
憂 2725
憊 2726
憋 2727
憎 2728
憐 2729
憑 2730
憔 2731
憚 2732
憤 2733
憧 2734
憨 2735
憩 2736
憫 2737
憬 2738
憲 2739
憶 2740
憾 2741
懂 2742
懇 2743
懈 2744
應 2745
懊 2746
懋 2747
懑 2748
懒 2749
懦 2750
懲 2751
懵 2752
懶 2753
懷 2754
懸 2755
懺 2756
懼 2757
懾 2758
懿 2759
戀 2760
戈 2761
戊 2762
戌 2763
戍 2764
戎 2765
戏 2766
成 2767
我 2768
戒 2769
戕 2770
或 2771
战 2772
戚 2773
戛 2774
戟 2775
戡 2776
戦 2777
截 2778
戬 2779
戮 2780
戰 2781
戲 2782
戳 2783
戴 2784
戶 2785
户 2786
戸 2787
戻 2788
戾 2789
房 2790
所 2791
扁 2792
扇 2793
扈 2794
扉 2795
手 2796
才 2797
扎 2798
扑 2799
扒 2800
打 2801
扔 2802
払 2803
托 2804
扛 2805
扣 2806
扦 2807
执 2808
扩 2809
扪 2810
扫 2811
扬 2812
扭 2813
扮 2814
扯 2815
扰 2816
扱 2817
扳 2818
扶 2819
批 2820
扼 2821
找 2822
承 2823
技 2824
抄 2825
抉 2826
把 2827
抑 2828
抒 2829
抓 2830
投 2831
抖 2832
抗 2833
折 2834
抚 2835
抛 2836
抜 2837
択 2838
抟 2839
抠 2840
抡 2841
抢 2842
护 2843
报 2844
抨 2845
披 2846
抬 2847
抱 2848
抵 2849
抹 2850
押 2851
抽 2852
抿 2853
拂 2854
拄 2855
担 2856
拆 2857
拇 2858
拈 2859
拉 2860
拋 2861
拌 2862
拍 2863
拎 2864
拐 2865
拒 2866
拓 2867
拔 2868
拖 2869
拗 2870
拘 2871
拙 2872
拚 2873
招 2874
拜 2875
拟 2876
拡 2877
拢 2878
拣 2879
拥 2880
拦 2881
拧 2882
拨 2883
择 2884
括 2885
拭 2886
拮 2887
拯 2888
拱 2889
拳 2890
拴 2891
拷 2892
拼 2893
拽 2894
拾 2895
拿 2896
持 2897
挂 2898
指 2899
挈 2900
按 2901
挎 2902
挑 2903
挖 2904
挙 2905
挚 2906
挛 2907
挝 2908
挞 2909
挟 2910
挠 2911
挡 2912
挣 2913
挤 2914
挥 2915
挨 2916
挪 2917
挫 2918
振 2919
挲 2920
挹 2921
挺 2922
挽 2923
挾 2924
捂 2925
捅 2926
捆 2927
捉 2928
捋 2929
捌 2930
捍 2931
捎 2932
捏 2933
捐 2934
捕 2935
捞 2936
损 2937
捡 2938
换 2939
捣 2940
捧 2941
捨 2942
捩 2943
据 2944
捱 2945
捲 2946
捶 2947
捷 2948
捺 2949
捻 2950
掀 2951
掂 2952
掃 2953
掇 2954
授 2955
掉 2956
掌 2957
掏 2958
掐 2959
排 2960
掖 2961
掘 2962
掙 2963
掛 2964
掠 2965
採 2966
探 2967
掣 2968
接 2969
控 2970
推 2971
掩 2972
措 2973
掬 2974
掰 2975
掲 2976
掳 2977
掴 2978
掷 2979
掸 2980
掺 2981
揀 2982
揃 2983
揄 2984
揆 2985
揉 2986
揍 2987
描 2988
提 2989
插 2990
揖 2991
揚 2992
換 2993
握 2994
揣 2995
揩 2996
揪 2997
揭 2998
揮 2999
援 3000
揶 3001
揸 3002
揹 3003
揽 3004
搀 3005
搁 3006
搂 3007
搅 3008
損 3009
搏 3010
搐 3011
搓 3012
搔 3013
搖 3014
搗 3015
搜 3016
搞 3017
搡 3018
搪 3019
搬 3020
搭 3021
搵 3022
搶 3023
携 3024
搽 3025
摀 3026
摁 3027
摄 3028
摆 3029
摇 3030
摈 3031
摊 3032
摒 3033
摔 3034
摘 3035
摞 3036
摟 3037
摧 3038
摩 3039
摯 3040
摳 3041
摸 3042
摹 3043
摺 3044
摻 3045
撂 3046
撃 3047
撅 3048
撇 3049
撈 3050
撐 3051
撑 3052
撒 3053
撓 3054
撕 3055
撚 3056
撞 3057
撤 3058
撥 3059
撩 3060
撫 3061
撬 3062
播 3063
撮 3064
撰 3065
撲 3066
撵 3067
撷 3068
撸 3069
撻 3070
撼 3071
撿 3072
擀 3073
擁 3074
擂 3075
擄 3076
擅 3077
擇 3078
擊 3079
擋 3080
操 3081
擎 3082
擒 3083
擔 3084
擘 3085
據 3086
擞 3087
擠 3088
擡 3089
擢 3090
擦 3091
擬 3092
擰 3093
擱 3094
擲 3095
擴 3096
擷 3097
擺 3098
擼 3099
擾 3100
攀 3101
攏 3102
攒 3103
攔 3104
攘 3105
攙 3106
攜 3107
攝 3108
攞 3109
攢 3110
攣 3111
攤 3112
攥 3113
攪 3114
攫 3115
攬 3116
支 3117
收 3118
攸 3119
改 3120
攻 3121
放 3122
政 3123
故 3124
效 3125
敌 3126
敍 3127
敎 3128
敏 3129
救 3130
敕 3131
敖 3132
敗 3133
敘 3134
教 3135
敛 3136
敝 3137
敞 3138
敢 3139
散 3140
敦 3141
敬 3142
数 3143
敲 3144
整 3145
敵 3146
敷 3147
數 3148
斂 3149
斃 3150
文 3151
斋 3152
斌 3153
斎 3154
斐 3155
斑 3156
斓 3157
斗 3158
料 3159
斛 3160
斜 3161
斟 3162
斡 3163
斤 3164
斥 3165
斧 3166
斩 3167
斫 3168
斬 3169
断 3170
斯 3171
新 3172
斷 3173
方 3174
於 3175
施 3176
旁 3177
旃 3178
旅 3179
旋 3180
旌 3181
旎 3182
族 3183
旖 3184
旗 3185
无 3186
既 3187
日 3188
旦 3189
旧 3190
旨 3191
早 3192
旬 3193
旭 3194
旮 3195
旱 3196
时 3197
旷 3198
旺 3199
旻 3200
昀 3201
昂 3202
昆 3203
昇 3204
昉 3205
昊 3206
昌 3207
明 3208
昏 3209
易 3210
昔 3211
昕 3212
昙 3213
星 3214
映 3215
春 3216
昧 3217
昨 3218
昭 3219
是 3220
昱 3221
昴 3222
昵 3223
昶 3224
昼 3225
显 3226
晁 3227
時 3228
晃 3229
晉 3230
晋 3231
晌 3232
晏 3233
晒 3234
晓 3235
晔 3236
晕 3237
晖 3238
晗 3239
晚 3240
晝 3241
晞 3242
晟 3243
晤 3244
晦 3245
晨 3246
晩 3247
普 3248
景 3249
晰 3250
晴 3251
晶 3252
晷 3253
智 3254
晾 3255
暂 3256
暄 3257
暇 3258
暈 3259
暉 3260
暌 3261
暐 3262
暑 3263
暖 3264
暗 3265
暝 3266
暢 3267
暧 3268
暨 3269
暫 3270
暮 3271
暱 3272
暴 3273
暸 3274
暹 3275
曄 3276
曆 3277
曇 3278
曉 3279
曖 3280
曙 3281
曜 3282
曝 3283
曠 3284
曦 3285
曬 3286
曰 3287
曲 3288
曳 3289
更 3290
書 3291
曹 3292
曼 3293
曾 3294
替 3295
最 3296
會 3297
月 3298
有 3299
朋 3300
服 3301
朐 3302
朔 3303
朕 3304
朗 3305
望 3306
朝 3307
期 3308
朦 3309
朧 3310
木 3311
未 3312
末 3313
本 3314
札 3315
朮 3316
术 3317
朱 3318
朴 3319
朵 3320
机 3321
朽 3322
杀 3323
杂 3324
权 3325
杆 3326
杈 3327
杉 3328
李 3329
杏 3330
材 3331
村 3332
杓 3333
杖 3334
杜 3335
杞 3336
束 3337
杠 3338
条 3339
来 3340
杨 3341
杭 3342
杯 3343
杰 3344
東 3345
杳 3346
杵 3347
杷 3348
杼 3349
松 3350
板 3351
极 3352
构 3353
枇 3354
枉 3355
枋 3356
析 3357
枕 3358
林 3359
枚 3360
果 3361
枝 3362
枢 3363
枣 3364
枪 3365
枫 3366
枭 3367
枯 3368
枰 3369
枱 3370
枳 3371
架 3372
枷 3373
枸 3374
柄 3375
柏 3376
某 3377
柑 3378
柒 3379
染 3380
柔 3381
柘 3382
柚 3383
柜 3384
柞 3385
柠 3386
柢 3387
查 3388
柩 3389
柬 3390
柯 3391
柱 3392
柳 3393
柴 3394
柵 3395
査 3396
柿 3397
栀 3398
栃 3399
栄 3400
栅 3401
标 3402
栈 3403
栉 3404
栋 3405
栎 3406
栏 3407
树 3408
栓 3409
栖 3410
栗 3411
校 3412
栩 3413
株 3414
样 3415
核 3416
根 3417
格 3418
栽 3419
栾 3420
桀 3421
桁 3422
桂 3423
桃 3424
桅 3425
框 3426
案 3427
桉 3428
桌 3429
桎 3430
桐 3431
桑 3432
桓 3433
桔 3434
桜 3435
桠 3436
桡 3437
桢 3438
档 3439
桥 3440
桦 3441
桧 3442
桨 3443
桩 3444
桶 3445
桿 3446
梁 3447
梅 3448
梆 3449
梏 3450
梓 3451
梗 3452
條 3453
梟 3454
梢 3455
梦 3456
梧 3457
梨 3458
梭 3459
梯 3460
械 3461
梳 3462
梵 3463
梶 3464
检 3465
棂 3466
棄 3467
棉 3468
棋 3469
棍 3470
棒 3471
棕 3472
棗 3473
棘 3474
棚 3475
棟 3476
棠 3477
棣 3478
棧 3479
森 3480
棱 3481
棲 3482
棵 3483
棹 3484
棺 3485
椁 3486
椅 3487
椋 3488
植 3489
椎 3490
椒 3491
検 3492
椪 3493
椭 3494
椰 3495
椹 3496
椽 3497
椿 3498
楂 3499
楊 3500
楓 3501
楔 3502
楚 3503
楝 3504
楞 3505
楠 3506
楣 3507
楨 3508
楫 3509
業 3510
楮 3511
極 3512
楷 3513
楸 3514
楹 3515
楼 3516
楽 3517
概 3518
榄 3519
榆 3520
榈 3521
榉 3522
榔 3523
榕 3524
榖 3525
榛 3526
榜 3527
榨 3528
榫 3529
榭 3530
榮 3531
榱 3532
榴 3533
榷 3534
榻 3535
槁 3536
槃 3537
構 3538
槌 3539
槍 3540
槎 3541
槐 3542
槓 3543
様 3544
槛 3545
槟 3546
槤 3547
槭 3548
槲 3549
槳 3550
槻 3551
槽 3552
槿 3553
樁 3554
樂 3555
樊 3556
樑 3557
樓 3558
標 3559
樞 3560
樟 3561
模 3562
樣 3563
権 3564
横 3565
樫 3566
樯 3567
樱 3568
樵 3569
樸 3570
樹 3571
樺 3572
樽 3573
樾 3574
橄 3575
橇 3576
橋 3577
橐 3578
橘 3579
橙 3580
機 3581
橡 3582
橢 3583
橫 3584
橱 3585
橹 3586
橼 3587
檀 3588
檄 3589
檎 3590
檐 3591
檔 3592
檗 3593
檜 3594
檢 3595
檬 3596
檯 3597
檳 3598
檸 3599
檻 3600
櫃 3601
櫚 3602
櫛 3603
櫥 3604
櫸 3605
櫻 3606
欄 3607
權 3608
欒 3609
欖 3610
欠 3611
次 3612
欢 3613
欣 3614
欧 3615
欲 3616
欸 3617
欺 3618
欽 3619
款 3620
歆 3621
歇 3622
歉 3623
歌 3624
歎 3625
歐 3626
歓 3627
歙 3628
歛 3629
歡 3630
止 3631
正 3632
此 3633
步 3634
武 3635
歧 3636
歩 3637
歪 3638
歯 3639
歲 3640
歳 3641
歴 3642
歷 3643
歸 3644
歹 3645
死 3646
歼 3647
殁 3648
殃 3649
殆 3650
殇 3651
殉 3652
殊 3653
残 3654
殒 3655
殓 3656
殖 3657
殘 3658
殞 3659
殡 3660
殤 3661
殭 3662
殯 3663
殲 3664
殴 3665
段 3666
殷 3667
殺 3668
殼 3669
殿 3670
毀 3671
毁 3672
毂 3673
毅 3674
毆 3675
毋 3676
母 3677
毎 3678
每 3679
毒 3680
毓 3681
比 3682
毕 3683
毗 3684
毘 3685
毙 3686
毛 3687
毡 3688
毫 3689
毯 3690
毽 3691
氈 3692
氏 3693
氐 3694
民 3695
氓 3696
气 3697
氖 3698
気 3699
氙 3700
氛 3701
氟 3702
氡 3703
氢 3704
氣 3705
氤 3706
氦 3707
氧 3708
氨 3709
氪 3710
氫 3711
氮 3712
氯 3713
氰 3714
氲 3715
水 3716
氷 3717
永 3718
氹 3719
氾 3720
汀 3721
汁 3722
求 3723
汆 3724
汇 3725
汉 3726
汎 3727
汐 3728
汕 3729
汗 3730
汙 3731
汛 3732
汝 3733
汞 3734
江 3735
池 3736
污 3737
汤 3738
汨 3739
汩 3740
汪 3741
汰 3742
汲 3743
汴 3744
汶 3745
汹 3746
決 3747
汽 3748
汾 3749
沁 3750
沂 3751
沃 3752
沅 3753
沈 3754
沉 3755
沌 3756
沏 3757
沐 3758
沒 3759
沓 3760
沖 3761
沙 3762
沛 3763
沟 3764
没 3765
沢 3766
沣 3767
沥 3768
沦 3769
沧 3770
沪 3771
沫 3772
沭 3773
沮 3774
沱 3775
河 3776
沸 3777
油 3778
治 3779
沼 3780
沽 3781
沾 3782
沿 3783
況 3784
泄 3785
泉 3786
泊 3787
泌 3788
泓 3789
法 3790
泗 3791
泛 3792
泞 3793
泠 3794
泡 3795
波 3796
泣 3797
泥 3798
注 3799
泪 3800
泫 3801
泮 3802
泯 3803
泰 3804
泱 3805
泳 3806
泵 3807
泷 3808
泸 3809
泻 3810
泼 3811
泽 3812
泾 3813
洁 3814
洄 3815
洋 3816
洒 3817
洗 3818
洙 3819
洛 3820
洞 3821
津 3822
洩 3823
洪 3824
洮 3825
洱 3826
洲 3827
洵 3828
洶 3829
洸 3830
洹 3831
活 3832
洼 3833
洽 3834
派 3835
流 3836
浃 3837
浄 3838
浅 3839
浆 3840
浇 3841
浊 3842
测 3843
济 3844
浏 3845
浑 3846
浒 3847
浓 3848
浔 3849
浙 3850
浚 3851
浜 3852
浣 3853
浦 3854
浩 3855
浪 3856
浬 3857
浮 3858
浯 3859
浴 3860
海 3861
浸 3862
涂 3863
涅 3864
涇 3865
消 3866
涉 3867
涌 3868
涎 3869
涓 3870
涔 3871
涕 3872
涙 3873
涛 3874
涝 3875
涞 3876
涟 3877
涠 3878
涡 3879
涣 3880
涤 3881
润 3882
涧 3883
涨 3884
涩 3885
涪 3886
涮 3887
涯 3888
液 3889
涵 3890
涸 3891
涼 3892
涿 3893
淀 3894
淄 3895
淅 3896
淆 3897
淇 3898
淋 3899
淌 3900
淑 3901
淒 3902
淖 3903
淘 3904
淙 3905
淚 3906
淞 3907
淡 3908
淤 3909
淦 3910
淨 3911
淩 3912
淪 3913
淫 3914
淬 3915
淮 3916
深 3917
淳 3918
淵 3919
混 3920
淹 3921
淺 3922
添 3923
淼 3924
清 3925
済 3926
渉 3927
渊 3928
渋 3929
渍 3930
渎 3931
渐 3932
渔 3933
渗 3934
渙 3935
渚 3936
減 3937
渝 3938
渠 3939
渡 3940
渣 3941
渤 3942
渥 3943
渦 3944
温 3945
測 3946
渭 3947
港 3948
渲 3949
渴 3950
游 3951
渺 3952
渾 3953
湃 3954
湄 3955
湊 3956
湍 3957
湖 3958
湘 3959
湛 3960
湟 3961
湧 3962
湫 3963
湮 3964
湯 3965
湳 3966
湾 3967
湿 3968
満 3969
溃 3970
溅 3971
溉 3972
溏 3973
源 3974
準 3975
溜 3976
溝 3977
溟 3978
溢 3979
溥 3980
溧 3981
溪 3982
溫 3983
溯 3984
溱 3985
溴 3986
溶 3987
溺 3988
溼 3989
滁 3990
滂 3991
滄 3992
滅 3993
滇 3994
滋 3995
滌 3996
滑 3997
滓 3998
滔 3999
滕 4000
滙 4001
滚 4002
滝 4003
滞 4004
滟 4005
满 4006
滢 4007
滤 4008
滥 4009
滦 4010
滨 4011
滩 4012
滬 4013
滯 4014
滲 4015
滴 4016
滷 4017
滸 4018
滾 4019
滿 4020
漁 4021
漂 4022
漆 4023
漉 4024
漏 4025
漓 4026
演 4027
漕 4028
漠 4029
漢 4030
漣 4031
漩 4032
漪 4033
漫 4034
漬 4035
漯 4036
漱 4037
漲 4038
漳 4039
漸 4040
漾 4041
漿 4042
潆 4043
潇 4044
潋 4045
潍 4046
潑 4047
潔 4048
潘 4049
潛 4050
潜 4051
潞 4052
潟 4053
潢 4054
潤 4055
潦 4056
潧 4057
潭 4058
潮 4059
潰 4060
潴 4061
潸 4062
潺 4063
潼 4064
澀 4065
澄 4066
澆 4067
澈 4068
澍 4069
澎 4070
澗 4071
澜 4072
澡 4073
澤 4074
澧 4075
澱 4076
澳 4077
澹 4078
激 4079
濁 4080
濂 4081
濃 4082
濑 4083
濒 4084
濕 4085
濘 4086
濛 4087
濟 4088
濠 4089
濡 4090
濤 4091
濫 4092
濬 4093
濮 4094
濯 4095
濱 4096
濺 4097
濾 4098
瀅 4099
瀆 4100
瀉 4101
瀋 4102
瀏 4103
瀑 4104
瀕 4105
瀘 4106
瀚 4107
瀛 4108
瀝 4109
瀞 4110
瀟 4111
瀧 4112
瀨 4113
瀬 4114
瀰 4115
瀾 4116
灌 4117
灏 4118
灑 4119
灘 4120
灝 4121
灞 4122
灣 4123
火 4124
灬 4125
灭 4126
灯 4127
灰 4128
灵 4129
灶 4130
灸 4131
灼 4132
災 4133
灾 4134
灿 4135
炀 4136
炁 4137
炅 4138
炉 4139
炊 4140
炎 4141
炒 4142
炔 4143
炕 4144
炖 4145
炙 4146
炜 4147
炫 4148
炬 4149
炭 4150
炮 4151
炯 4152
炳 4153
炷 4154
炸 4155
点 4156
為 4157
炼 4158
炽 4159
烁 4160
烂 4161
烃 4162
烈 4163
烊 4164
烏 4165
烘 4166
烙 4167
烛 4168
烟 4169
烤 4170
烦 4171
烧 4172
烨 4173
烩 4174
烫 4175
烬 4176
热 4177
烯 4178
烷 4179
烹 4180
烽 4181
焉 4182
焊 4183
焕 4184
焖 4185
焗 4186
焘 4187
焙 4188
焚 4189
焜 4190
無 4191
焦 4192
焯 4193
焰 4194
焱 4195
然 4196
焼 4197
煅 4198
煉 4199
煊 4200
煌 4201
煎 4202
煒 4203
煖 4204
煙 4205
煜 4206
煞 4207
煤 4208
煥 4209
煦 4210
照 4211
煨 4212
煩 4213
煮 4214
煲 4215
煸 4216
煽 4217
熄 4218
熊 4219
熏 4220
熒 4221
熔 4222
熙 4223
熟 4224
熠 4225
熨 4226
熬 4227
熱 4228
熵 4229
熹 4230
熾 4231
燁 4232
燃 4233
燄 4234
燈 4235
燉 4236
燊 4237
燎 4238
燒 4239
燔 4240
燕 4241
燙 4242
燜 4243
營 4244
燥 4245
燦 4246
燧 4247
燭 4248
燮 4249
燴 4250
燻 4251
燼 4252
燿 4253
爆 4254
爍 4255
爐 4256
爛 4257
爪 4258
爬 4259
爭 4260
爰 4261
爱 4262
爲 4263
爵 4264
父 4265
爷 4266
爸 4267
爹 4268
爺 4269
爻 4270
爽 4271
爾 4272
牆 4273
片 4274
版 4275
牌 4276
牍 4277
牒 4278
牙 4279
牛 4280
牝 4281
牟 4282
牠 4283
牡 4284
牢 4285
牦 4286
牧 4287
物 4288
牯 4289
牲 4290
牴 4291
牵 4292
特 4293
牺 4294
牽 4295
犀 4296
犁 4297
犄 4298
犊 4299
犍 4300
犒 4301
犢 4302
犧 4303
犬 4304
犯 4305
状 4306
犷 4307
犸 4308
犹 4309
狀 4310
狂 4311
狄 4312
狈 4313
狎 4314
狐 4315
狒 4316
狗 4317
狙 4318
狞 4319
狠 4320
狡 4321
狩 4322
独 4323
狭 4324
狮 4325
狰 4326
狱 4327
狸 4328
狹 4329
狼 4330
狽 4331
猎 4332
猕 4333
猖 4334
猗 4335
猙 4336
猛 4337
猜 4338
猝 4339
猥 4340
猩 4341
猪 4342
猫 4343
猬 4344
献 4345
猴 4346
猶 4347
猷 4348
猾 4349
猿 4350
獄 4351
獅 4352
獎 4353
獐 4354
獒 4355
獗 4356
獠 4357
獣 4358
獨 4359
獭 4360
獰 4361
獲 4362
獵 4363
獷 4364
獸 4365
獺 4366
獻 4367
獼 4368
獾 4369
玄 4370
率 4371
玉 4372
王 4373
玑 4374
玖 4375
玛 4376
玟 4377
玠 4378
玥 4379
玩 4380
玫 4381
玮 4382
环 4383
现 4384
玲 4385
玳 4386
玷 4387
玺 4388
玻 4389
珀 4390
珂 4391
珅 4392
珈 4393
珉 4394
珊 4395
珍 4396
珏 4397
珐 4398
珑 4399
珙 4400
珞 4401
珠 4402
珣 4403
珥 4404
珩 4405
珪 4406
班 4407
珮 4408
珲 4409
珺 4410
現 4411
球 4412
琅 4413
理 4414
琇 4415
琉 4416
琊 4417
琍 4418
琏 4419
琐 4420
琛 4421
琢 4422
琥 4423
琦 4424
琨 4425
琪 4426
琬 4427
琮 4428
琰 4429
琲 4430
琳 4431
琴 4432
琵 4433
琶 4434
琺 4435
琼 4436
瑀 4437
瑁 4438
瑄 4439
瑋 4440
瑕 4441
瑗 4442
瑙 4443
瑚 4444
瑛 4445
瑜 4446
瑞 4447
瑟 4448
瑠 4449
瑣 4450
瑤 4451
瑩 4452
瑪 4453
瑯 4454
瑰 4455
瑶 4456
瑾 4457
璀 4458
璁 4459
璃 4460
璇 4461
璉 4462
璋 4463
璎 4464
璐 4465
璜 4466
璞 4467
璟 4468
璧 4469
璨 4470
環 4471
璽 4472
璿 4473
瓊 4474
瓏 4475
瓒 4476
瓜 4477
瓢 4478
瓣 4479
瓤 4480
瓦 4481
瓮 4482
瓯 4483
瓴 4484
瓶 4485
瓷 4486
甄 4487
甌 4488
甕 4489
甘 4490
甙 4491
甚 4492
甜 4493
生 4494
產 4495
産 4496
甥 4497
甦 4498
用 4499
甩 4500
甫 4501
甬 4502
甭 4503
甯 4504
田 4505
由 4506
甲 4507
申 4508
电 4509
男 4510
甸 4511
町 4512
画 4513
甾 4514
畀 4515
畅 4516
界 4517
畏 4518
畑 4519
畔 4520
留 4521
畜 4522
畝 4523
畢 4524
略 4525
畦 4526
番 4527
畫 4528
異 4529
畲 4530
畳 4531
畴 4532
當 4533
畸 4534
畹 4535
畿 4536
疆 4537
疇 4538
疊 4539
疏 4540
疑 4541
疔 4542
疖 4543
疗 4544
疙 4545
疚 4546
疝 4547
疟 4548
疡 4549
疣 4550
疤 4551
疥 4552
疫 4553
疮 4554
疯 4555
疱 4556
疲 4557
疳 4558
疵 4559
疸 4560
疹 4561
疼 4562
疽 4563
疾 4564
痂 4565
病 4566
症 4567
痈 4568
痉 4569
痊 4570
痍 4571
痒 4572
痔 4573
痕 4574
痘 4575
痙 4576
痛 4577
痞 4578
痠 4579
痢 4580
痣 4581
痤 4582
痧 4583
痨 4584
痪 4585
痫 4586
痰 4587
痱 4588
痴 4589
痹 4590
痺 4591
痼 4592
痿 4593
瘀 4594
瘁 4595
瘋 4596
瘍 4597
瘓 4598
瘘 4599
瘙 4600
瘟 4601
瘠 4602
瘡 4603
瘢 4604
瘤 4605
瘦 4606
瘧 4607
瘩 4608
瘪 4609
瘫 4610
瘴 4611
瘸 4612
瘾 4613
療 4614
癇 4615
癌 4616
癒 4617
癖 4618
癜 4619
癞 4620
癡 4621
癢 4622
癣 4623
癥 4624
癫 4625
癬 4626
癮 4627
癱 4628
癲 4629
癸 4630
発 4631
登 4632
發 4633
白 4634
百 4635
皂 4636
的 4637
皆 4638
皇 4639
皈 4640
皋 4641
皎 4642
皑 4643
皓 4644
皖 4645
皙 4646
皚 4647
皮 4648
皰 4649
皱 4650
皴 4651
皺 4652
皿 4653
盂 4654
盃 4655
盅 4656
盆 4657
盈 4658
益 4659
盎 4660
盏 4661
盐 4662
监 4663
盒 4664
盔 4665
盖 4666
盗 4667
盘 4668
盛 4669
盜 4670
盞 4671
盟 4672
盡 4673
監 4674
盤 4675
盥 4676
盧 4677
盪 4678
目 4679
盯 4680
盱 4681
盲 4682
直 4683
相 4684
盹 4685
盼 4686
盾 4687
省 4688
眈 4689
眉 4690
看 4691
県 4692
眙 4693
眞 4694
真 4695
眠 4696
眦 4697
眨 4698
眩 4699
眯 4700
眶 4701
眷 4702
眸 4703
眺 4704
眼 4705
眾 4706
着 4707
睁 4708
睇 4709
睏 4710
睐 4711
睑 4712
睛 4713
睜 4714
睞 4715
睡 4716
睢 4717
督 4718
睥 4719
睦 4720
睨 4721
睪 4722
睫 4723
睬 4724
睹 4725
睽 4726
睾 4727
睿 4728
瞄 4729
瞅 4730
瞇 4731
瞋 4732
瞌 4733
瞎 4734
瞑 4735
瞒 4736
瞓 4737
瞞 4738
瞟 4739
瞠 4740
瞥 4741
瞧 4742
瞩 4743
瞪 4744
瞬 4745
瞭 4746
瞰 4747
瞳 4748
瞻 4749
瞼 4750
瞿 4751
矇 4752
矍 4753
矗 4754
矚 4755
矛 4756
矜 4757
矢 4758
矣 4759
知 4760
矩 4761
矫 4762
短 4763
矮 4764
矯 4765
石 4766
矶 4767
矽 4768
矾 4769
矿 4770
码 4771
砂 4772
砌 4773
砍 4774
砒 4775
研 4776
砖 4777
砗 4778
砚 4779
砝 4780
砣 4781
砥 4782
砧 4783
砭 4784
砰 4785
砲 4786
破 4787
砷 4788
砸 4789
砺 4790
砼 4791
砾 4792
础 4793
硅 4794
硐 4795
硒 4796
硕 4797
硝 4798
硫 4799
硬 4800
确 4801
硯 4802
硼 4803
碁 4804
碇 4805
碉 4806
碌 4807
碍 4808
碎 4809
碑 4810
碓 4811
碗 4812
碘 4813
碚 4814
碛 4815
碟 4816
碣 4817
碧 4818
碩 4819
碰 4820
碱 4821
碳 4822
碴 4823
確 4824
碼 4825
碾 4826
磁 4827
磅 4828
磊 4829
磋 4830
磐 4831
磕 4832
磚 4833
磡 4834
磨 4835
磬 4836
磯 4837
磲 4838
磷 4839
磺 4840
礁 4841
礎 4842
礙 4843
礡 4844
礦 4845
礪 4846
礫 4847
礴 4848
示 4849
礼 4850
社 4851
祀 4852
祁 4853
祂 4854
祇 4855
祈 4856
祉 4857
祎 4858
祐 4859
祕 4860
祖 4861
祗 4862
祚 4863
祛 4864
祜 4865
祝 4866
神 4867
祟 4868
祠 4869
祢 4870
祥 4871
票 4872
祭 4873
祯 4874
祷 4875
祸 4876
祺 4877
祿 4878
禀 4879
禁 4880
禄 4881
禅 4882
禍 4883
禎 4884
福 4885
禛 4886
禦 4887
禧 4888
禪 4889
禮 4890
禱 4891
禹 4892
禺 4893
离 4894
禽 4895
禾 4896
禿 4897
秀 4898
私 4899
秃 4900
秆 4901
秉 4902
秋 4903
种 4904
科 4905
秒 4906
秘 4907
租 4908
秣 4909
秤 4910
秦 4911
秧 4912
秩 4913
秭 4914
积 4915
称 4916
秸 4917
移 4918
秽 4919
稀 4920
稅 4921
程 4922
稍 4923
税 4924
稔 4925
稗 4926
稚 4927
稜 4928
稞 4929
稟 4930
稠 4931
稣 4932
種 4933
稱 4934
稲 4935
稳 4936
稷 4937
稹 4938
稻 4939
稼 4940
稽 4941
稿 4942
穀 4943
穂 4944
穆 4945
穌 4946
積 4947
穎 4948
穗 4949
穢 4950
穩 4951
穫 4952
穴 4953
究 4954
穷 4955
穹 4956
空 4957
穿 4958
突 4959
窃 4960
窄 4961
窈 4962
窍 4963
窑 4964
窒 4965
窓 4966
窕 4967
窖 4968
窗 4969
窘 4970
窜 4971
窝 4972
窟 4973
窠 4974
窥 4975
窦 4976
窨 4977
窩 4978
窪 4979
窮 4980
窯 4981
窺 4982
窿 4983
竄 4984
竅 4985
竇 4986
竊 4987
立 4988
竖 4989
站 4990
竜 4991
竞 4992
竟 4993
章 4994
竣 4995
童 4996
竭 4997
端 4998
競 4999
竹 5000
竺 5001
竽 5002
竿 5003
笃 5004
笆 5005
笈 5006
笋 5007
笏 5008
笑 5009
笔 5010
笙 5011
笛 5012
笞 5013
笠 5014
符 5015
笨 5016
第 5017
笹 5018
笺 5019
笼 5020
筆 5021
等 5022
筊 5023
筋 5024
筍 5025
筏 5026
筐 5027
筑 5028
筒 5029
答 5030
策 5031
筛 5032
筝 5033
筠 5034
筱 5035
筲 5036
筵 5037
筷 5038
筹 5039
签 5040
简 5041
箇 5042
箋 5043
箍 5044
箏 5045
箐 5046
箔 5047
箕 5048
算 5049
箝 5050
管 5051
箩 5052
箫 5053
箭 5054
箱 5055
箴 5056
箸 5057
節 5058
篁 5059
範 5060
篆 5061
篇 5062
築 5063
篑 5064
篓 5065
篙 5066
篝 5067
篠 5068
篡 5069
篤 5070
篩 5071
篪 5072
篮 5073
篱 5074
篷 5075
簇 5076
簌 5077
簍 5078
簡 5079
簦 5080
簧 5081
簪 5082
簫 5083
簷 5084
簸 5085
簽 5086
簾 5087
簿 5088
籁 5089
籃 5090
籌 5091
籍 5092
籐 5093
籟 5094
籠 5095
籤 5096
籬 5097
籮 5098
籲 5099
米 5100
类 5101
籼 5102
籽 5103
粄 5104
粉 5105
粑 5106
粒 5107
粕 5108
粗 5109
粘 5110
粟 5111
粤 5112
粥 5113
粧 5114
粪 5115
粮 5116
粱 5117
粲 5118
粳 5119
粵 5120
粹 5121
粼 5122
粽 5123
精 5124
粿 5125
糅 5126
糊 5127
糍 5128
糕 5129
糖 5130
糗 5131
糙 5132
糜 5133
糞 5134
糟 5135
糠 5136
糧 5137
糬 5138
糯 5139
糰 5140
糸 5141
系 5142
糾 5143
紀 5144
紂 5145
約 5146
紅 5147
紉 5148
紊 5149
紋 5150
納 5151
紐 5152
紓 5153
純 5154
紗 5155
紘 5156
紙 5157
級 5158
紛 5159
紜 5160
素 5161
紡 5162
索 5163
紧 5164
紫 5165
紮 5166
累 5167
細 5168
紳 5169
紹 5170
紺 5171
終 5172
絃 5173
組 5174
絆 5175
経 5176
結 5177
絕 5178
絞 5179
絡 5180
絢 5181
給 5182
絨 5183
絮 5184
統 5185
絲 5186
絳 5187
絵 5188
絶 5189
絹 5190
綁 5191
綏 5192
綑 5193
經 5194
継 5195
続 5196
綜 5197
綠 5198
綢 5199
綦 5200
綫 5201
綬 5202
維 5203
綱 5204
網 5205
綴 5206
綵 5207
綸 5208
綺 5209
綻 5210
綽 5211
綾 5212
綿 5213
緊 5214
緋 5215
総 5216
緑 5217
緒 5218
緘 5219
線 5220
緝 5221
緞 5222
締 5223
緣 5224
編 5225
緩 5226
緬 5227
緯 5228
練 5229
緹 5230
緻 5231
縁 5232
縄 5233
縈 5234
縛 5235
縝 5236
縣 5237
縫 5238
縮 5239
縱 5240
縴 5241
縷 5242
總 5243
績 5244
繁 5245
繃 5246
繆 5247
繇 5248
繋 5249
織 5250
繕 5251
繚 5252
繞 5253
繡 5254
繩 5255
繪 5256
繫 5257
繭 5258
繳 5259
繹 5260
繼 5261
繽 5262
纂 5263
續 5264
纍 5265
纏 5266
纓 5267
纔 5268
纖 5269
纜 5270
纠 5271
红 5272
纣 5273
纤 5274
约 5275
级 5276
纨 5277
纪 5278
纫 5279
纬 5280
纭 5281
纯 5282
纰 5283
纱 5284
纲 5285
纳 5286
纵 5287
纶 5288
纷 5289
纸 5290
纹 5291
纺 5292
纽 5293
纾 5294
线 5295
绀 5296
练 5297
组 5298
绅 5299
细 5300
织 5301
终 5302
绊 5303
绍 5304
绎 5305
经 5306
绑 5307
绒 5308
结 5309
绔 5310
绕 5311
绘 5312
给 5313
绚 5314
绛 5315
络 5316
绝 5317
绞 5318
统 5319
绡 5320
绢 5321
绣 5322
绥 5323
绦 5324
继 5325
绩 5326
绪 5327
绫 5328
续 5329
绮 5330
绯 5331
绰 5332
绳 5333
维 5334
绵 5335
绶 5336
绷 5337
绸 5338
绻 5339
综 5340
绽 5341
绾 5342
绿 5343
缀 5344
缄 5345
缅 5346
缆 5347
缇 5348
缈 5349
缉 5350
缎 5351
缓 5352
缔 5353
缕 5354
编 5355
缘 5356
缙 5357
缚 5358
缜 5359
缝 5360
缠 5361
缢 5362
缤 5363
缥 5364
缨 5365
缩 5366
缪 5367
缭 5368
缮 5369
缰 5370
缱 5371
缴 5372
缸 5373
缺 5374
缽 5375
罂 5376
罄 5377
罌 5378
罐 5379
网 5380
罔 5381
罕 5382
罗 5383
罚 5384
罡 5385
罢 5386
罩 5387
罪 5388
置 5389
罰 5390
署 5391
罵 5392
罷 5393
罹 5394
羁 5395
羅 5396
羈 5397
羊 5398
羌 5399
美 5400
羔 5401
羚 5402
羞 5403
羟 5404
羡 5405
羣 5406
群 5407
羥 5408
羧 5409
羨 5410
義 5411
羯 5412
羲 5413
羸 5414
羹 5415
羽 5416
羿 5417
翁 5418
翅 5419
翊 5420
翌 5421
翎 5422
習 5423
翔 5424
翘 5425
翟 5426
翠 5427
翡 5428
翦 5429
翩 5430
翰 5431
翱 5432
翳 5433
翹 5434
翻 5435
翼 5436
耀 5437
老 5438
考 5439
耄 5440
者 5441
耆 5442
耋 5443
而 5444
耍 5445
耐 5446
耒 5447
耕 5448
耗 5449
耘 5450
耙 5451
耦 5452
耨 5453
耳 5454
耶 5455
耷 5456
耸 5457
耻 5458
耽 5459
耿 5460
聂 5461
聆 5462
聊 5463
聋 5464
职 5465
聒 5466
联 5467
聖 5468
聘 5469
聚 5470
聞 5471
聪 5472
聯 5473
聰 5474
聲 5475
聳 5476
聴 5477
聶 5478
職 5479
聽 5480
聾 5481
聿 5482
肃 5483
肄 5484
肅 5485
肆 5486
肇 5487
肉 5488
肋 5489
肌 5490
肏 5491
肓 5492
肖 5493
肘 5494
肚 5495
肛 5496
肝 5497
肠 5498
股 5499
肢 5500
肤 5501
肥 5502
肩 5503
肪 5504
肮 5505
肯 5506
肱 5507
育 5508
肴 5509
肺 5510
肽 5511
肾 5512
肿 5513
胀 5514
胁 5515
胃 5516
胄 5517
胆 5518
背 5519
胍 5520
胎 5521
胖 5522
胚 5523
胛 5524
胜 5525
胝 5526
胞 5527
胡 5528
胤 5529
胥 5530
胧 5531
胫 5532
胭 5533
胯 5534
胰 5535
胱 5536
胳 5537
胴 5538
胶 5539
胸 5540
胺 5541
能 5542
脂 5543
脅 5544
脆 5545
脇 5546
脈 5547
脉 5548
脊 5549
脍 5550
脏 5551
脐 5552
脑 5553
脓 5554
脖 5555
脘 5556
脚 5557
脛 5558
脣 5559
脩 5560
脫 5561
脯 5562
脱 5563
脲 5564
脳 5565
脸 5566
脹 5567
脾 5568
腆 5569
腈 5570
腊 5571
腋 5572
腌 5573
腎 5574
腐 5575
腑 5576
腓 5577
腔 5578
腕 5579
腥 5580
腦 5581
腩 5582
腫 5583
腭 5584
腮 5585
腰 5586
腱 5587
腳 5588
腴 5589
腸 5590
腹 5591
腺 5592
腻 5593
腼 5594
腾 5595
腿 5596
膀 5597
膈 5598
膊 5599
膏 5600
膑 5601
膘 5602
膚 5603
膛 5604
膜 5605
膝 5606
膠 5607
膦 5608
膨 5609
膩 5610
膳 5611
膺 5612
膻 5613
膽 5614
膾 5615
膿 5616
臀 5617
臂 5618
臃 5619
臆 5620
臉 5621
臊 5622
臍 5623
臓 5624
臘 5625
臟 5626
臣 5627
臥 5628
臧 5629
臨 5630
自 5631
臬 5632
臭 5633
至 5634
致 5635
臺 5636
臻 5637
臼 5638
臾 5639
舀 5640
舂 5641
舅 5642
舆 5643
與 5644
興 5645
舉 5646
舊 5647
舌 5648
舍 5649
舎 5650
舐 5651
舒 5652
舔 5653
舖 5654
舗 5655
舛 5656
舜 5657
舞 5658
舟 5659
航 5660
舫 5661
般 5662
舰 5663
舱 5664
舵 5665
舶 5666
舷 5667
舸 5668
船 5669
舺 5670
舾 5671
艇 5672
艋 5673
艘 5674
艙 5675
艦 5676
艮 5677
良 5678
艰 5679
艱 5680
色 5681
艳 5682
艷 5683
艹 5684
艺 5685
艾 5686
节 5687
芃 5688
芈 5689
芊 5690
芋 5691
芍 5692
芎 5693
芒 5694
芙 5695
芜 5696
芝 5697
芡 5698
芥 5699
芦 5700
芩 5701
芪 5702
芫 5703
芬 5704
芭 5705
芮 5706
芯 5707
花 5708
芳 5709
芷 5710
芸 5711
芹 5712
芻 5713
芽 5714
芾 5715
苁 5716
苄 5717
苇 5718
苋 5719
苍 5720
苏 5721
苑 5722
苒 5723
苓 5724
苔 5725
苕 5726
苗 5727
苛 5728
苜 5729
苞 5730
苟 5731
苡 5732
苣 5733
若 5734
苦 5735
苫 5736
苯 5737
英 5738
苷 5739
苹 5740
苻 5741
茁 5742
茂 5743
范 5744
茄 5745
茅 5746
茉 5747
茎 5748
茏 5749
茗 5750
茜 5751
茧 5752
茨 5753
茫 5754
茬 5755
茭 5756
茯 5757
茱 5758
茲 5759
茴 5760
茵 5761
茶 5762
茸 5763
茹 5764
茼 5765
荀 5766
荃 5767
荆 5768
草 5769
荊 5770
荏 5771
荐 5772
荒 5773
荔 5774
荖 5775
荘 5776
荚 5777
荞 5778
荟 5779
荠 5780
荡 5781
荣 5782
荤 5783
荥 5784
荧 5785
荨 5786
荪 5787
荫 5788
药 5789
荳 5790
荷 5791
荸 5792
荻 5793
荼 5794
荽 5795
莅 5796
莆 5797
莉 5798
莊 5799
莎 5800
莒 5801
莓 5802
莖 5803
莘 5804
莞 5805
莠 5806
莢 5807
莧 5808
莪 5809
莫 5810
莱 5811
莲 5812
莴 5813
获 5814
莹 5815
莺 5816
莽 5817
莿 5818
菀 5819
菁 5820
菅 5821
菇 5822
菈 5823
菊 5824
菌 5825
菏 5826
菓 5827
菖 5828
菘 5829
菜 5830
菟 5831
菠 5832
菡 5833
菩 5834
華 5835
菱 5836
菲 5837
菸 5838
菽 5839
萁 5840
萃 5841
萄 5842
萊 5843
萋 5844
萌 5845
萍 5846
萎 5847
萘 5848
萝 5849
萤 5850
营 5851
萦 5852
萧 5853
萨 5854
萩 5855
萬 5856
萱 5857
萵 5858
萸 5859
萼 5860
落 5861
葆 5862
葉 5863
著 5864
葚 5865
葛 5866
葡 5867
董 5868
葦 5869
葩 5870
葫 5871
葬 5872
葭 5873
葯 5874
葱 5875
葳 5876
葵 5877
葷 5878
葺 5879
蒂 5880
蒋 5881
蒐 5882
蒔 5883
蒙 5884
蒜 5885
蒞 5886
蒟 5887
蒡 5888
蒨 5889
蒲 5890
蒸 5891
蒹 5892
蒻 5893
蒼 5894
蒿 5895
蓁 5896
蓄 5897
蓆 5898
蓉 5899
蓋 5900
蓑 5901
蓓 5902
蓖 5903
蓝 5904
蓟 5905
蓦 5906
蓬 5907
蓮 5908
蓼 5909
蓿 5910
蔑 5911
蔓 5912
蔔 5913
蔗 5914
蔘 5915
蔚 5916
蔡 5917
蔣 5918
蔥 5919
蔫 5920
蔬 5921
蔭 5922
蔵 5923
蔷 5924
蔺 5925
蔻 5926
蔼 5927
蔽 5928
蕁 5929
蕃 5930
蕈 5931
蕉 5932
蕊 5933
蕎 5934
蕙 5935
蕤 5936
蕨 5937
蕩 5938
蕪 5939
蕭 5940
蕲 5941
蕴 5942
蕻 5943
蕾 5944
薄 5945
薅 5946
薇 5947
薈 5948
薊 5949
薏 5950
薑 5951
薔 5952
薙 5953
薛 5954
薦 5955
薨 5956
薩 5957
薪 5958
薬 5959
薯 5960
薰 5961
薹 5962
藉 5963
藍 5964
藏 5965
藐 5966
藓 5967
藕 5968
藜 5969
藝 5970
藤 5971
藥 5972
藩 5973
藹 5974
藻 5975
藿 5976
蘆 5977
蘇 5978
蘊 5979
蘋 5980
蘑 5981
蘚 5982
蘭 5983
蘸 5984
蘼 5985
蘿 5986
虎 5987
虏 5988
虐 5989
虑 5990
虔 5991
處 5992
虚 5993
虛 5994
虜 5995
虞 5996
號 5997
虢 5998
虧 5999
虫 6000
虬 6001
虱 6002
虹 6003
虻 6004
虽 6005
虾 6006
蚀 6007
蚁 6008
蚂 6009
蚊 6010
蚌 6011
蚓 6012
蚕 6013
蚜 6014
蚝 6015
蚣 6016
蚤 6017
蚩 6018
蚪 6019
蚯 6020
蚱 6021
蚵 6022
蛀 6023
蛆 6024
蛇 6025
蛊 6026
蛋 6027
蛎 6028
蛐 6029
蛔 6030
蛙 6031
蛛 6032
蛟 6033
蛤 6034
蛭 6035
蛮 6036
蛰 6037
蛳 6038
蛹 6039
蛻 6040
蛾 6041
蜀 6042
蜂 6043
蜃 6044
蜆 6045
蜇 6046
蜈 6047
蜊 6048
蜍 6049
蜒 6050
蜓 6051
蜕 6052
蜗 6053
蜘 6054
蜚 6055
蜜 6056
蜡 6057
蜢 6058
蜥 6059
蜱 6060
蜴 6061
蜷 6062
蜻 6063
蜿 6064
蝇 6065
蝈 6066
蝉 6067
蝌 6068
蝎 6069
蝕 6070
蝗 6071
蝙 6072
蝟 6073
蝠 6074
蝦 6075
蝨 6076
蝴 6077
蝶 6078
蝸 6079
蝼 6080
螂 6081
螃 6082
融 6083
螞 6084
螢 6085
螨 6086
螯 6087
螳 6088
螺 6089
蟀 6090
蟄 6091
蟆 6092
蟋 6093
蟎 6094
蟑 6095
蟒 6096
蟠 6097
蟬 6098
蟲 6099
蟹 6100
蟻 6101
蟾 6102
蠅 6103
蠍 6104
蠔 6105
蠕 6106
蠛 6107
蠟 6108
蠡 6109
蠢 6110
蠣 6111
蠱 6112
蠶 6113
蠹 6114
蠻 6115
血 6116
衄 6117
衅 6118
衆 6119
行 6120
衍 6121
術 6122
衔 6123
街 6124
衙 6125
衛 6126
衝 6127
衞 6128
衡 6129
衢 6130
衣 6131
补 6132
表 6133
衩 6134
衫 6135
衬 6136
衮 6137
衰 6138
衲 6139
衷 6140
衹 6141
衾 6142
衿 6143
袁 6144
袂 6145
袄 6146
袅 6147
袈 6148
袋 6149
袍 6150
袒 6151
袖 6152
袜 6153
袞 6154
袤 6155
袪 6156
被 6157
袭 6158
袱 6159
裁 6160
裂 6161
装 6162
裆 6163
裊 6164
裏 6165
裔 6166
裕 6167
裘 6168
裙 6169
補 6170
裝 6171
裟 6172
裡 6173
裤 6174
裨 6175
裱 6176
裳 6177
裴 6178
裸 6179
裹 6180
製 6181
裾 6182
褂 6183
複 6184
褐 6185
褒 6186
褓 6187
褔 6188
褚 6189
褥 6190
褪 6191
褫 6192
褲 6193
褶 6194
褻 6195
襁 6196
襄 6197
襟 6198
襠 6199
襪 6200
襬 6201
襯 6202
襲 6203
西 6204
要 6205
覃 6206
覆 6207
覇 6208
見 6209
規 6210
覓 6211
視 6212
覚 6213
覦 6214
覧 6215
親 6216
覬 6217
観 6218
覷 6219
覺 6220
覽 6221
觀 6222
见 6223
观 6224
规 6225
觅 6226
视 6227
览 6228
觉 6229
觊 6230
觎 6231
觐 6232
觑 6233
角 6234
觞 6235
解 6236
觥 6237
触 6238
觸 6239
言 6240
訂 6241
計 6242
訊 6243
討 6244
訓 6245
訕 6246
訖 6247
託 6248
記 6249
訛 6250
訝 6251
訟 6252
訣 6253
訥 6254
訪 6255
設 6256
許 6257
訳 6258
訴 6259
訶 6260
診 6261
註 6262
証 6263
詆 6264
詐 6265
詔 6266
評 6267
詛 6268
詞 6269
詠 6270
詡 6271
詢 6272
詣 6273
試 6274
詩 6275
詫 6276
詬 6277
詭 6278
詮 6279
詰 6280
話 6281
該 6282
詳 6283
詹 6284
詼 6285
誅 6286
誇 6287
誉 6288
誌 6289
認 6290
誓 6291
誕 6292
誘 6293
語 6294
誠 6295
誡 6296
誣 6297
誤 6298
誥 6299
誦 6300
誨 6301
說 6302
説 6303
読 6304
誰 6305
課 6306
誹 6307
誼 6308
調 6309
諄 6310
談 6311
請 6312
諏 6313
諒 6314
論 6315
諗 6316
諜 6317
諡 6318
諦 6319
諧 6320
諫 6321
諭 6322
諮 6323
諱 6324
諳 6325
諷 6326
諸 6327
諺 6328
諾 6329
謀 6330
謁 6331
謂 6332
謄 6333
謊 6334
謎 6335
謐 6336
謔 6337
謗 6338
謙 6339
講 6340
謝 6341
謠 6342
謨 6343
謬 6344
謹 6345
謾 6346
譁 6347
證 6348
譎 6349
譏 6350
識 6351
譙 6352
譚 6353
譜 6354
警 6355
譬 6356
譯 6357
議 6358
譲 6359
譴 6360
護 6361
譽 6362
讀 6363
變 6364
讓 6365
讚 6366
讞 6367
计 6368
订 6369
认 6370
讥 6371
讧 6372
讨 6373
让 6374
讪 6375
讫 6376
训 6377
议 6378
讯 6379
记 6380
讲 6381
讳 6382
讴 6383
讶 6384
讷 6385
许 6386
讹 6387
论 6388
讼 6389
讽 6390
设 6391
访 6392
诀 6393
证 6394
诃 6395
评 6396
诅 6397
识 6398
诈 6399
诉 6400
诊 6401
诋 6402
词 6403
诏 6404
译 6405
试 6406
诗 6407
诘 6408
诙 6409
诚 6410
诛 6411
话 6412
诞 6413
诟 6414
诠 6415
诡 6416
询 6417
诣 6418
诤 6419
该 6420
详 6421
诧 6422
诩 6423
诫 6424
诬 6425
语 6426
误 6427
诰 6428
诱 6429
诲 6430
说 6431
诵 6432
诶 6433
请 6434
诸 6435
诺 6436
读 6437
诽 6438
课 6439
诿 6440
谀 6441
谁 6442
调 6443
谄 6444
谅 6445
谆 6446
谈 6447
谊 6448
谋 6449
谌 6450
谍 6451
谎 6452
谏 6453
谐 6454
谑 6455
谒 6456
谓 6457
谔 6458
谕 6459
谗 6460
谘 6461
谙 6462
谚 6463
谛 6464
谜 6465
谟 6466
谢 6467
谣 6468
谤 6469
谥 6470
谦 6471
谧 6472
谨 6473
谩 6474
谪 6475
谬 6476
谭 6477
谯 6478
谱 6479
谲 6480
谴 6481
谶 6482
谷 6483
豁 6484
豆 6485
豇 6486
豈 6487
豉 6488
豊 6489
豌 6490
豎 6491
豐 6492
豔 6493
豚 6494
象 6495
豢 6496
豪 6497
豫 6498
豬 6499
豹 6500
豺 6501
貂 6502
貅 6503
貌 6504
貓 6505
貔 6506
貘 6507
貝 6508
貞 6509
負 6510
財 6511
貢 6512
貧 6513
貨 6514
販 6515
貪 6516
貫 6517
責 6518
貯 6519
貰 6520
貳 6521
貴 6522
貶 6523
買 6524
貸 6525
費 6526
貼 6527
貽 6528
貿 6529
賀 6530
賁 6531
賂 6532
賃 6533
賄 6534
資 6535
賈 6536
賊 6537
賑 6538
賓 6539
賜 6540
賞 6541
賠 6542
賡 6543
賢 6544
賣 6545
賤 6546
賦 6547
質 6548
賬 6549
賭 6550
賴 6551
賺 6552
購 6553
賽 6554
贅 6555
贈 6556
贊 6557
贍 6558
贏 6559
贓 6560
贖 6561
贛 6562
贝 6563
贞 6564
负 6565
贡 6566
财 6567
责 6568
贤 6569
败 6570
账 6571
货 6572
质 6573
贩 6574
贪 6575
贫 6576
贬 6577
购 6578
贮 6579
贯 6580
贰 6581
贱 6582
贲 6583
贴 6584
贵 6585
贷 6586
贸 6587
费 6588
贺 6589
贻 6590
贼 6591
贾 6592
贿 6593
赁 6594
赂 6595
赃 6596
资 6597
赅 6598
赈 6599
赊 6600
赋 6601
赌 6602
赎 6603
赏 6604
赐 6605
赓 6606
赔 6607
赖 6608
赘 6609
赚 6610
赛 6611
赝 6612
赞 6613
赠 6614
赡 6615
赢 6616
赣 6617
赤 6618
赦 6619
赧 6620
赫 6621
赭 6622
走 6623
赳 6624
赴 6625
赵 6626
赶 6627
起 6628
趁 6629
超 6630
越 6631
趋 6632
趕 6633
趙 6634
趟 6635
趣 6636
趨 6637
足 6638
趴 6639
趵 6640
趸 6641
趺 6642
趾 6643
跃 6644
跄 6645
跆 6646
跋 6647
跌 6648
跎 6649
跑 6650
跖 6651
跚 6652
跛 6653
距 6654
跟 6655
跡 6656
跤 6657
跨 6658
跩 6659
跪 6660
路 6661
跳 6662
践 6663
跷 6664
跹 6665
跺 6666
跻 6667
踉 6668
踊 6669
踌 6670
踏 6671
踐 6672
踝 6673
踞 6674
踟 6675
踢 6676
踩 6677
踪 6678
踮 6679
踱 6680
踴 6681
踵 6682
踹 6683
蹂 6684
蹄 6685
蹇 6686
蹈 6687
蹉 6688
蹊 6689
蹋 6690
蹑 6691
蹒 6692
蹙 6693
蹟 6694
蹣 6695
蹤 6696
蹦 6697
蹩 6698
蹬 6699
蹭 6700
蹲 6701
蹴 6702
蹶 6703
蹺 6704
蹼 6705
蹿 6706
躁 6707
躇 6708
躉 6709
躊 6710
躋 6711
躍 6712
躏 6713
躪 6714
身 6715
躬 6716
躯 6717
躲 6718
躺 6719
軀 6720
車 6721
軋 6722
軌 6723
軍 6724
軒 6725
軟 6726
転 6727
軸 6728
軼 6729
軽 6730
軾 6731
較 6732
載 6733
輒 6734
輓 6735
輔 6736
輕 6737
輛 6738
輝 6739
輟 6740
輩 6741
輪 6742
輯 6743
輸 6744
輻 6745
輾 6746
輿 6747
轄 6748
轅 6749
轆 6750
轉 6751
轍 6752
轎 6753
轟 6754
车 6755
轧 6756
轨 6757
轩 6758
转 6759
轭 6760
轮 6761
软 6762
轰 6763
轲 6764
轴 6765
轶 6766
轻 6767
轼 6768
载 6769
轿 6770
较 6771
辄 6772
辅 6773
辆 6774
辇 6775
辈 6776
辉 6777
辊 6778
辍 6779
辐 6780
辑 6781
输 6782
辕 6783
辖 6784
辗 6785
辘 6786
辙 6787
辛 6788
辜 6789
辞 6790
辟 6791
辣 6792
辦 6793
辨 6794
辩 6795
辫 6796
辭 6797
辮 6798
辯 6799
辰 6800
辱 6801
農 6802
边 6803
辺 6804
辻 6805
込 6806
辽 6807
达 6808
迁 6809
迂 6810
迄 6811
迅 6812
过 6813
迈 6814
迎 6815
运 6816
近 6817
返 6818
还 6819
这 6820
进 6821
远 6822
违 6823
连 6824
迟 6825
迢 6826
迤 6827
迥 6828
迦 6829
迩 6830
迪 6831
迫 6832
迭 6833
述 6834
迴 6835
迷 6836
迸 6837
迹 6838
迺 6839
追 6840
退 6841
送 6842
适 6843
逃 6844
逅 6845
逆 6846
选 6847
逊 6848
逍 6849
透 6850
逐 6851
递 6852
途 6853
逕 6854
逗 6855
這 6856
通 6857
逛 6858
逝 6859
逞 6860
速 6861
造 6862
逢 6863
連 6864
逮 6865
週 6866
進 6867
逵 6868
逶 6869
逸 6870
逻 6871
逼 6872
逾 6873
遁 6874
遂 6875
遅 6876
遇 6877
遊 6878
運 6879
遍 6880
過 6881
遏 6882
遐 6883
遑 6884
遒 6885
道 6886
達 6887
違 6888
遗 6889
遙 6890
遛 6891
遜 6892
遞 6893
遠 6894
遢 6895
遣 6896
遥 6897
遨 6898
適 6899
遭 6900
遮 6901
遲 6902
遴 6903
遵 6904
遶 6905
遷 6906
選 6907
遺 6908
遼 6909
遽 6910
避 6911
邀 6912
邁 6913
邂 6914
邃 6915
還 6916
邇 6917
邈 6918
邊 6919
邋 6920
邏 6921
邑 6922
邓 6923
邕 6924
邛 6925
邝 6926
邢 6927
那 6928
邦 6929
邨 6930
邪 6931
邬 6932
邮 6933
邯 6934
邰 6935
邱 6936
邳 6937
邵 6938
邸 6939
邹 6940
邺 6941
邻 6942
郁 6943
郅 6944
郊 6945
郎 6946
郑 6947
郜 6948
郝 6949
郡 6950
郢 6951
郤 6952
郦 6953
郧 6954
部 6955
郫 6956
郭 6957
郴 6958
郵 6959
郷 6960
郸 6961
都 6962
鄂 6963
鄉 6964
鄒 6965
鄔 6966
鄙 6967
鄞 6968
鄢 6969
鄧 6970
鄭 6971
鄰 6972
鄱 6973
鄲 6974
鄺 6975
酉 6976
酊 6977
酋 6978
酌 6979
配 6980
酐 6981
酒 6982
酗 6983
酚 6984
酝 6985
酢 6986
酣 6987
酥 6988
酩 6989
酪 6990
酬 6991
酮 6992
酯 6993
酰 6994
酱 6995
酵 6996
酶 6997
酷 6998
酸 6999
酿 7000
醃 7001
醇 7002
醉 7003
醋 7004
醍 7005
醐 7006
醒 7007
醚 7008
醛 7009
醜 7010
醞 7011
醣 7012
醪 7013
醫 7014
醬 7015
醮 7016
醯 7017
醴 7018
醺 7019
釀 7020
釁 7021
采 7022
釉 7023
释 7024
釋 7025
里 7026
重 7027
野 7028
量 7029
釐 7030
金 7031
釗 7032
釘 7033
釜 7034
針 7035
釣 7036
釦 7037
釧 7038
釵 7039
鈀 7040
鈉 7041
鈍 7042
鈎 7043
鈔 7044
鈕 7045
鈞 7046
鈣 7047
鈦 7048
鈪 7049
鈴 7050
鈺 7051
鈾 7052
鉀 7053
鉄 7054
鉅 7055
鉉 7056
鉑 7057
鉗 7058
鉚 7059
鉛 7060
鉤 7061
鉴 7062
鉻 7063
銀 7064
銃 7065
銅 7066
銑 7067
銓 7068
銖 7069
銘 7070
銜 7071
銬 7072
銭 7073
銮 7074
銳 7075
銷 7076
銹 7077
鋁 7078
鋅 7079
鋒 7080
鋤 7081
鋪 7082
鋰 7083
鋸 7084
鋼 7085
錄 7086
錐 7087
錘 7088
錚 7089
錠 7090
錢 7091
錦 7092
錨 7093
錫 7094
錮 7095
錯 7096
録 7097
錳 7098
錶 7099
鍊 7100
鍋 7101
鍍 7102
鍛 7103
鍥 7104
鍰 7105
鍵 7106
鍺 7107
鍾 7108
鎂 7109
鎊 7110
鎌 7111
鎏 7112
鎔 7113
鎖 7114
鎗 7115
鎚 7116
鎧 7117
鎬 7118
鎮 7119
鎳 7120
鏈 7121
鏖 7122
鏗 7123
鏘 7124
鏞 7125
鏟 7126
鏡 7127
鏢 7128
鏤 7129
鏽 7130
鐘 7131
鐮 7132
鐲 7133
鐳 7134
鐵 7135
鐸 7136
鐺 7137
鑄 7138
鑊 7139
鑑 7140
鑒 7141
鑣 7142
鑫 7143
鑰 7144
鑲 7145
鑼 7146
鑽 7147
鑾 7148
鑿 7149
针 7150
钉 7151
钊 7152
钎 7153
钏 7154
钒 7155
钓 7156
钗 7157
钙 7158
钛 7159
钜 7160
钝 7161
钞 7162
钟 7163
钠 7164
钡 7165
钢 7166
钣 7167
钤 7168
钥 7169
钦 7170
钧 7171
钨 7172
钩 7173
钮 7174
钯 7175
钰 7176
钱 7177
钳 7178
钴 7179
钵 7180
钺 7181
钻 7182
钼 7183
钾 7184
钿 7185
铀 7186
铁 7187
铂 7188
铃 7189
铄 7190
铅 7191
铆 7192
铉 7193
铎 7194
铐 7195
铛 7196
铜 7197
铝 7198
铠 7199
铡 7200
铢 7201
铣 7202
铤 7203
铨 7204
铩 7205
铬 7206
铭 7207
铮 7208
铰 7209
铲 7210
铵 7211
银 7212
铸 7213
铺 7214
链 7215
铿 7216
销 7217
锁 7218
锂 7219
锄 7220
锅 7221
锆 7222
锈 7223
锉 7224
锋 7225
锌 7226
锏 7227
锐 7228
锑 7229
错 7230
锚 7231
锟 7232
锡 7233
锢 7234
锣 7235
锤 7236
锥 7237
锦 7238
锭 7239
键 7240
锯 7241
锰 7242
锲 7243
锵 7244
锹 7245
锺 7246
锻 7247
镀 7248
镁 7249
镂 7250
镇 7251
镉 7252
镌 7253
镍 7254
镐 7255
镑 7256
镕 7257
镖 7258
镗 7259
镛 7260
镜 7261
镣 7262
镭 7263
镯 7264
镰 7265
镳 7266
镶 7267
長 7268
长 7269
門 7270
閃 7271
閉 7272
開 7273
閎 7274
閏 7275
閑 7276
閒 7277
間 7278
閔 7279
閘 7280
閡 7281
関 7282
閣 7283
閥 7284
閨 7285
閩 7286
閱 7287
閲 7288
閹 7289
閻 7290
閾 7291
闆 7292
闇 7293
闊 7294
闌 7295
闍 7296
闔 7297
闕 7298
闖 7299
闘 7300
關 7301
闡 7302
闢 7303
门 7304
闪 7305
闫 7306
闭 7307
问 7308
闯 7309
闰 7310
闲 7311
间 7312
闵 7313
闷 7314
闸 7315
闹 7316
闺 7317
闻 7318
闽 7319
闾 7320
阀 7321
阁 7322
阂 7323
阅 7324
阆 7325
阇 7326
阈 7327
阉 7328
阎 7329
阐 7330
阑 7331
阔 7332
阕 7333
阖 7334
阙 7335
阚 7336
阜 7337
队 7338
阡 7339
阪 7340
阮 7341
阱 7342
防 7343
阳 7344
阴 7345
阵 7346
阶 7347
阻 7348
阿 7349
陀 7350
陂 7351
附 7352
际 7353
陆 7354
陇 7355
陈 7356
陋 7357
陌 7358
降 7359
限 7360
陕 7361
陛 7362
陝 7363
陞 7364
陟 7365
陡 7366
院 7367
陣 7368
除 7369
陨 7370
险 7371
陪 7372
陰 7373
陲 7374
陳 7375
陵 7376
陶 7377
陷 7378
陸 7379
険 7380
陽 7381
隅 7382
隆 7383
隈 7384
隊 7385
隋 7386
隍 7387
階 7388
随 7389
隐 7390
隔 7391
隕 7392
隘 7393
隙 7394
際 7395
障 7396
隠 7397
隣 7398
隧 7399
隨 7400
險 7401
隱 7402
隴 7403
隶 7404
隸 7405
隻 7406
隼 7407
隽 7408
难 7409
雀 7410
雁 7411
雄 7412
雅 7413
集 7414
雇 7415
雉 7416
雋 7417
雌 7418
雍 7419
雎 7420
雏 7421
雑 7422
雒 7423
雕 7424
雖 7425
雙 7426
雛 7427
雜 7428
雞 7429
離 7430
難 7431
雨 7432
雪 7433
雯 7434
雰 7435
雲 7436
雳 7437
零 7438
雷 7439
雹 7440
電 7441
雾 7442
需 7443
霁 7444
霄 7445
霆 7446
震 7447
霈 7448
霉 7449
霊 7450
霍 7451
霎 7452
霏 7453
霑 7454
霓 7455
霖 7456
霜 7457
霞 7458
霧 7459
霭 7460
霰 7461
露 7462
霸 7463
霹 7464
霽 7465
霾 7466
靂 7467
靄 7468
靈 7469
青 7470
靓 7471
靖 7472
静 7473
靚 7474
靛 7475
靜 7476
非 7477
靠 7478
靡 7479
面 7480
靥 7481
靦 7482
革 7483
靳 7484
靴 7485
靶 7486
靼 7487
鞅 7488
鞋 7489
鞍 7490
鞏 7491
鞑 7492
鞘 7493
鞠 7494
鞣 7495
鞦 7496
鞭 7497
韆 7498
韋 7499
韌 7500
韓 7501
韜 7502
韦 7503
韧 7504
韩 7505
韬 7506
韭 7507
音 7508
韵 7509
韶 7510
韻 7511
響 7512
頁 7513
頂 7514
頃 7515
項 7516
順 7517
須 7518
頌 7519
預 7520
頑 7521
頒 7522
頓 7523
頗 7524
領 7525
頜 7526
頡 7527
頤 7528
頫 7529
頭 7530
頰 7531
頷 7532
頸 7533
頹 7534
頻 7535
頼 7536
顆 7537
題 7538
額 7539
顎 7540
顏 7541
顔 7542
願 7543
顛 7544
類 7545
顧 7546
顫 7547
顯 7548
顱 7549
顴 7550
页 7551
顶 7552
顷 7553
项 7554
顺 7555
须 7556
顼 7557
顽 7558
顾 7559
顿 7560
颁 7561
颂 7562
预 7563
颅 7564
领 7565
颇 7566
颈 7567
颉 7568
颊 7569
颌 7570
颍 7571
颐 7572
频 7573
颓 7574
颔 7575
颖 7576
颗 7577
题 7578
颚 7579
颛 7580
颜 7581
额 7582
颞 7583
颠 7584
颡 7585
颢 7586
颤 7587
颦 7588
颧 7589
風 7590
颯 7591
颱 7592
颳 7593
颶 7594
颼 7595
飄 7596
飆 7597
风 7598
飒 7599
飓 7600
飕 7601
飘 7602
飙 7603
飚 7604
飛 7605
飞 7606
食 7607
飢 7608
飨 7609
飩 7610
飪 7611
飯 7612
飲 7613
飼 7614
飽 7615
飾 7616
餃 7617
餅 7618
餉 7619
養 7620
餌 7621
餐 7622
餒 7623
餓 7624
餘 7625
餚 7626
餛 7627
餞 7628
餡 7629
館 7630
餮 7631
餵 7632
餾 7633
饅 7634
饈 7635
饋 7636
饌 7637
饍 7638
饑 7639
饒 7640
饕 7641
饗 7642
饞 7643
饥 7644
饨 7645
饪 7646
饬 7647
饭 7648
饮 7649
饯 7650
饰 7651
饱 7652
饲 7653
饴 7654
饵 7655
饶 7656
饷 7657
饺 7658
饼 7659
饽 7660
饿 7661
馀 7662
馁 7663
馄 7664
馅 7665
馆 7666
馈 7667
馋 7668
馍 7669
馏 7670
馒 7671
馔 7672
首 7673
馗 7674
香 7675
馥 7676
馨 7677
馬 7678
馭 7679
馮 7680
馳 7681
馴 7682
駁 7683
駄 7684
駅 7685
駆 7686
駐 7687
駒 7688
駕 7689
駛 7690
駝 7691
駭 7692
駱 7693
駿 7694
騁 7695
騎 7696
騏 7697
験 7698
騙 7699
騨 7700
騰 7701
騷 7702
驀 7703
驅 7704
驊 7705
驍 7706
驒 7707
驕 7708
驗 7709
驚 7710
驛 7711
驟 7712
驢 7713
驥 7714
马 7715
驭 7716
驮 7717
驯 7718
驰 7719
驱 7720
驳 7721
驴 7722
驶 7723
驷 7724
驸 7725
驹 7726
驻 7727
驼 7728
驾 7729
驿 7730
骁 7731
骂 7732
骄 7733
骅 7734
骆 7735
骇 7736
骈 7737
骊 7738
骋 7739
验 7740
骏 7741
骐 7742
骑 7743
骗 7744
骚 7745
骛 7746
骜 7747
骞 7748
骠 7749
骡 7750
骤 7751
骥 7752
骧 7753
骨 7754
骯 7755
骰 7756
骶 7757
骷 7758
骸 7759
骼 7760
髂 7761
髅 7762
髋 7763
髏 7764
髒 7765
髓 7766
體 7767
髖 7768
高 7769
髦 7770
髪 7771
髮 7772
髯 7773
髻 7774
鬃 7775
鬆 7776
鬍 7777
鬓 7778
鬚 7779
鬟 7780
鬢 7781
鬣 7782
鬥 7783
鬧 7784
鬱 7785
鬼 7786
魁 7787
魂 7788
魄 7789
魅 7790
魇 7791
魍 7792
魏 7793
魔 7794
魘 7795
魚 7796
魯 7797
魷 7798
鮑 7799
鮨 7800
鮪 7801
鮭 7802
鮮 7803
鯉 7804
鯊 7805
鯖 7806
鯛 7807
鯨 7808
鯰 7809
鯽 7810
鰍 7811
鰓 7812
鰭 7813
鰲 7814
鰻 7815
鰾 7816
鱈 7817
鱉 7818
鱔 7819
鱗 7820
鱷 7821
鱸 7822
鱼 7823
鱿 7824
鲁 7825
鲈 7826
鲍 7827
鲑 7828
鲛 7829
鲜 7830
鲟 7831
鲢 7832
鲤 7833
鲨 7834
鲫 7835
鲱 7836
鲲 7837
鲶 7838
鲷 7839
鲸 7840
鳃 7841
鳄 7842
鳅 7843
鳌 7844
鳍 7845
鳕 7846
鳖 7847
鳗 7848
鳝 7849
鳞 7850
鳥 7851
鳩 7852
鳳 7853
鳴 7854
鳶 7855
鴉 7856
鴕 7857
鴛 7858
鴦 7859
鴨 7860
鴻 7861
鴿 7862
鵑 7863
鵜 7864
鵝 7865
鵡 7866
鵬 7867
鵰 7868
鵲 7869
鶘 7870
鶩 7871
鶯 7872
鶴 7873
鷗 7874
鷲 7875
鷹 7876
鷺 7877
鸚 7878
鸞 7879
鸟 7880
鸠 7881
鸡 7882
鸢 7883
鸣 7884
鸥 7885
鸦 7886
鸨 7887
鸪 7888
鸭 7889
鸯 7890
鸳 7891
鸵 7892
鸽 7893
鸾 7894
鸿 7895
鹂 7896
鹃 7897
鹄 7898
鹅 7899
鹈 7900
鹉 7901
鹊 7902
鹌 7903
鹏 7904
鹑 7905
鹕 7906
鹘 7907
鹜 7908
鹞 7909
鹤 7910
鹦 7911
鹧 7912
鹫 7913
鹭 7914
鹰 7915
鹳 7916
鹵 7917
鹹 7918
鹼 7919
鹽 7920
鹿 7921
麂 7922
麋 7923
麒 7924
麓 7925
麗 7926
麝 7927
麟 7928
麥 7929
麦 7930
麩 7931
麴 7932
麵 7933
麸 7934
麺 7935
麻 7936
麼 7937
麽 7938
麾 7939
黃 7940
黄 7941
黍 7942
黎 7943
黏 7944
黑 7945
黒 7946
黔 7947
默 7948
黛 7949
黜 7950
黝 7951
點 7952
黠 7953
黨 7954
黯 7955
黴 7956
鼋 7957
鼎 7958
鼐 7959
鼓 7960
鼠 7961
鼬 7962
鼹 7963
鼻 7964
鼾 7965
齁 7966
齊 7967
齋 7968
齐 7969
齒 7970
齡 7971
齢 7972
齣 7973
齦 7974
齿 7975
龄 7976
龅 7977
龈 7978
龊 7979
龋 7980
龌 7981
龍 7982
龐 7983
龔 7984
龕 7985
龙 7986
龚 7987
龛 7988
龜 7989
龟 7990
︰ 7991
︱ 7992
︶ 7993
︿ 7994
﹁ 7995
﹂ 7996
﹍ 7997
﹏ 7998
﹐ 7999
﹑ 8000
﹒ 8001
﹔ 8002
﹕ 8003
﹖ 8004
﹗ 8005
﹙ 8006
﹚ 8007
﹝ 8008
﹞ 8009
﹡ 8010
﹣ 8011
！ 8012
＂ 8013
＃ 8014
＄ 8015
％ 8016
＆ 8017
＇ 8018
（ 8019
） 8020
＊ 8021
＋ 8022
， 8023
－ 8024
． 8025
／ 8026
０ 8027
１ 8028
２ 8029
３ 8030
４ 8031
５ 8032
６ 8033
７ 8034
８ 8035
９ 8036
： 8037
； 8038
＜ 8039
＝ 8040
＞ 8041
？ 8042
＠ 8043
［ 8044
＼ 8045
］ 8046
＾ 8047
＿ 8048
｀ 8049
ａ 8050
ｂ 8051
ｃ 8052
ｄ 8053
ｅ 8054
ｆ 8055
ｇ 8056
ｈ 8057
ｉ 8058
ｊ 8059
ｋ 8060
ｌ 8061
ｍ 8062
ｎ 8063
ｏ 8064
ｐ 8065
ｑ 8066
ｒ 8067
ｓ 8068
ｔ 8069
ｕ 8070
ｖ 8071
ｗ 8072
ｘ 8073
ｙ 8074
ｚ 8075
｛ 8076
｜ 8077
｝ 8078
～ 8079
｡ 8080
｢ 8081
｣ 8082
､ 8083
･ 8084
ｯ 8085
ｰ 8086
ｲ 8087
ｸ 8088
ｼ 8089
ｽ 8090
ﾄ 8091
ﾉ 8092
ﾌ 8093
ﾗ 8094
ﾙ 8095
ﾝ 8096
ﾞ 8097
ﾟ 8098
￣ 8099
￥ 8100
👍 8101
🔥 8102
😂 8103
😎 8104
... 8105
yam 8106
10 8107
2017 8108
12 8109
11 8110
2016 8111
20 8112
30 8113
15 8114
06 8115
lofter 8116
##s 8117
2015 8118
by 8119
16 8120
14 8121
18 8122
13 8123
24 8124
17 8125
2014 8126
21 8127
##0 8128
22 8129
19 8130
25 8131
23 8132
com 8133
100 8134
00 8135
05 8136
2013 8137
##a 8138
03 8139
09 8140
08 8141
28 8142
##2 8143
50 8144
01 8145
04 8146
##1 8147
27 8148
02 8149
2012 8150
##3 8151
26 8152
##e 8153
07 8154
##8 8155
##5 8156
##6 8157
##4 8158
##9 8159
##7 8160
29 8161
2011 8162
40 8163
##t 8164
2010 8165
##o 8166
##d 8167
##i 8168
2009 8169
##n 8170
app 8171
www 8172
the 8173
##m 8174
31 8175
##c 8176
##l 8177
##y 8178
##r 8179
##g 8180
2008 8181
60 8182
http 8183
200 8184
qq 8185
##p 8186
80 8187
##f 8188
google 8189
pixnet 8190
90 8191
cookies 8192
tripadvisor 8193
500 8194
##er 8195
##k 8196
35 8197
##h 8198
facebook 8199
2007 8200
2000 8201
70 8202
##b 8203
of 8204
##x 8205
##u 8206
45 8207
300 8208
iphone 8209
32 8210
1000 8211
2006 8212
48 8213
ip 8214
36 8215
in 8216
38 8217
3d 8218
##w 8219
##ing 8220
55 8221
ctrip 8222
##on 8223
##v 8224
33 8225
##の 8226
to 8227
34 8228
400 8229
id 8230
2005 8231
it 8232
37 8233
windows 8234
llc 8235
top 8236
99 8237
42 8238
39 8239
000 8240
led 8241
at 8242
##an 8243
41 8244
51 8245
52 8246
46 8247
49 8248
43 8249
53 8250
44 8251
##z 8252
android 8253
58 8254
and 8255
59 8256
2004 8257
56 8258
vr 8259
##か 8260
5000 8261
2003 8262
47 8263
blogthis 8264
twitter 8265
54 8266
##le 8267
150 8268
ok 8269
2018 8270
57 8271
75 8272
cn 8273
no 8274
ios 8275
##in 8276
##mm 8277
##00 8278
800 8279
on 8280
te 8281
3000 8282
65 8283
2001 8284
360 8285
95 8286
ig 8287
lv 8288
120 8289
##ng 8290
##を 8291
##us 8292
##に 8293
pc 8294
てす 8295
── 8296
600 8297
##te 8298
85 8299
2002 8300
88 8301
##ed 8302
html 8303
ncc 8304
wifi 8305
email 8306
64 8307
blog 8308
is 8309
##10 8310
##て 8311
mail 8312
online 8313
##al 8314
dvd 8315
##ic 8316
studio 8317
##は 8318
##℃ 8319
##ia 8320
##と 8321
line 8322
vip 8323
72 8324
##q 8325
98 8326
##ce 8327
##en 8328
for 8329
##is 8330
##ra 8331
##es 8332
##j 8333
usb 8334
net 8335
cp 8336
1999 8337
asia 8338
4g 8339
##cm 8340
diy 8341
new 8342
3c 8343
##お 8344
ta 8345
66 8346
language 8347
vs 8348
apple 8349
tw 8350
86 8351
web 8352
##ne 8353
ipad 8354
62 8355
you 8356
##re 8357
101 8358
68 8359
##tion 8360
ps 8361
de 8362
bt 8363
pony 8364
atm 8365
##2017 8366
1998 8367
67 8368
##ch 8369
ceo 8370
##or 8371
go 8372
##na 8373
av 8374
pro 8375
cafe 8376
96 8377
pinterest 8378
97 8379
63 8380
pixstyleme3c 8381
##ta 8382
more 8383
said 8384
##2016 8385
1997 8386
mp3 8387
700 8388
##ll 8389
nba 8390
jun 8391
##20 8392
92 8393
tv 8394
1995 8395
pm 8396
61 8397
76 8398
nbsp 8399
250 8400
##ie 8401
linux 8402
##ma 8403
cd 8404
110 8405
hd 8406
##17 8407
78 8408
##ion 8409
77 8410
6000 8411
am 8412
##th 8413
##st 8414
94 8415
##se 8416
##et 8417
69 8418
180 8419
gdp 8420
my 8421
105 8422
81 8423
abc 8424
89 8425
flash 8426
79 8427
one 8428
93 8429
1990 8430
1996 8431
##ck 8432
gps 8433
##も 8434
##ly 8435
web885 8436
106 8437
2020 8438
91 8439
##ge 8440
4000 8441
1500 8442
xd 8443
boss 8444
isbn 8445
1994 8446
org 8447
##ry 8448
me 8449
love 8450
##11 8451
0fork 8452
73 8453
##12 8454
3g 8455
##ter 8456
##ar 8457
71 8458
82 8459
##la 8460
hotel 8461
130 8462
1970 8463
pk 8464
83 8465
87 8466
140 8467
ie 8468
##os 8469
##30 8470
##el 8471
74 8472
##50 8473
seo 8474
cpu 8475
##ml 8476
p2p 8477
84 8478
may 8479
##る 8480
sun 8481
tue 8482
internet 8483
cc 8484
posted 8485
youtube 8486
##at 8487
##ン 8488
##man 8489
ii 8490
##ル 8491
##15 8492
abs 8493
nt 8494
pdf 8495
yahoo 8496
ago 8497
1980 8498
##it 8499
news 8500
mac 8501
104 8502
##てす 8503
##me 8504
##り 8505
java 8506
1992 8507
spa 8508
##de 8509
##nt 8510
hk 8511
all 8512
plus 8513
la 8514
1993 8515
##mb 8516
##16 8517
##ve 8518
west 8519
##da 8520
160 8521
air 8522
##い 8523
##ps 8524
から 8525
##to 8526
1989 8527
logo 8528
htc 8529
php 8530
https 8531
fi 8532
momo 8533
##son 8534
sat 8535
##ke 8536
##80 8537
ebd 8538
suv 8539
wi 8540
day 8541
apk 8542
##88 8543
##um 8544
mv 8545
galaxy 8546
wiki 8547
or 8548
brake 8549
##ス 8550
1200 8551
する 8552
this 8553
1991 8554
mon 8555
##こ 8556
❤2017 8557
po 8558
##ない 8559
javascript 8560
life 8561
home 8562
june 8563
##ss 8564
system 8565
900 8566
##ー 8567
##０ 8568
pp 8569
1988 8570
world 8571
fb 8572
4k 8573
br 8574
##as 8575
ic 8576
ai 8577
leonardo 8578
safari 8579
##60 8580
live 8581
free 8582
xx 8583
wed 8584
win7 8585
kiehl 8586
##co 8587
lg 8588
o2o 8589
##go 8590
us 8591
235 8592
1949 8593
mm 8594
しい 8595
vfm 8596
kanye 8597
##90 8598
##2015 8599
##id 8600
jr 8601
##ey 8602
123 8603
rss 8604
##sa 8605
##ro 8606
##am 8607
##no 8608
thu 8609
fri 8610
350 8611
##sh 8612
##ki 8613
103 8614
comments 8615
name 8616
##のて 8617
##pe 8618
##ine 8619
max 8620
1987 8621
8000 8622
uber 8623
##mi 8624
##ton 8625
wordpress 8626
office 8627
1986 8628
1985 8629
##ment 8630
107 8631
bd 8632
win10 8633
##ld 8634
##li 8635
gmail 8636
bb 8637
dior 8638
##rs 8639
##ri 8640
##rd 8641
##ます 8642
up 8643
cad 8644
##® 8645
dr 8646
して 8647
read 8648
##21 8649
をお 8650
##io 8651
##99 8652
url 8653
1984 8654
pvc 8655
paypal 8656
show 8657
policy 8658
##40 8659
##ty 8660
##18 8661
with 8662
##★ 8663
##01 8664
txt 8665
102 8666
##ba 8667
dna 8668
from 8669
post 8670
mini 8671
ar 8672
taiwan 8673
john 8674
##ga 8675
privacy 8676
agoda 8677
##13 8678
##ny 8679
word 8680
##24 8681
##22 8682
##by 8683
##ur 8684
##hz 8685
1982 8686
##ang 8687
265 8688
cookie 8689
netscape 8690
108 8691
##ka 8692
##～ 8693
##ad 8694
house 8695
share 8696
note 8697
ibm 8698
code 8699
hello 8700
nike 8701
sim 8702
survey 8703
##016 8704
1979 8705
1950 8706
wikia 8707
##32 8708
##017 8709
5g 8710
cbc 8711
##tor 8712
##kg 8713
1983 8714
##rt 8715
##14 8716
campaign 8717
store 8718
2500 8719
os 8720
##ct 8721
##ts 8722
##° 8723
170 8724
api 8725
##ns 8726
365 8727
excel 8728
##な 8729
##ao 8730
##ら 8731
##し 8732
～～ 8733
##nd 8734
university 8735
163 8736
には 8737
518 8738
##70 8739
##ya 8740
##il 8741
##25 8742
pierre 8743
ipo 8744
0020 8745
897 8746
##23 8747
hotels 8748
##ian 8749
のお 8750
125 8751
years 8752
6606 8753
##ers 8754
##26 8755
high 8756
##day 8757
time 8758
##ay 8759
bug 8760
##line 8761
##く 8762
##す 8763
##be 8764
xp 8765
talk2yam 8766
yamservice 8767
10000 8768
coco 8769
##dy 8770
sony 8771
##ies 8772
1978 8773
microsoft 8774
david 8775
people 8776
##ha 8777
1960 8778
instagram 8779
intel 8780
その 8781
##ot 8782
iso 8783
1981 8784
##va 8785
115 8786
##mo 8787
##land 8788
xxx 8789
man 8790
co 8791
ltxsw 8792
##ation 8793
baby 8794
220 8795
##pa 8796
##ol 8797
1945 8798
7000 8799
tag 8800
450 8801
##ue 8802
msn 8803
##31 8804
oppo 8805
##ト 8806
##ca 8807
control 8808
##om 8809
st 8810
chrome 8811
##ure 8812
##ん 8813
be 8814
##き 8815
lol 8816
##19 8817
した 8818
##bo 8819
240 8820
lady 8821
##100 8822
##way 8823
##から 8824
4600 8825
##ko 8826
##do 8827
##un 8828
4s 8829
corporation 8830
168 8831
##ni 8832
herme 8833
##28 8834
ｃｐ 8835
978 8836
##up 8837
##06 8838
ui 8839
##ds 8840
ppt 8841
admin 8842
three 8843
します 8844
bbc 8845
re 8846
128 8847
##48 8848
ca 8849
##015 8850
##35 8851
hp 8852
##ee 8853
tpp 8854
##た 8855
##ive 8856
×× 8857
root 8858
##cc 8859
##ました 8860
##ble 8861
##ity 8862
adobe 8863
park 8864
114 8865
et 8866
oled 8867
city 8868
##ex 8869
##ler 8870
##ap 8871
china 8872
##book 8873
20000 8874
view 8875
##ice 8876
global 8877
##km 8878
your 8879
hong 8880
##mg 8881
out 8882
##ms 8883
ng 8884
ebay 8885
##29 8886
menu 8887
ubuntu 8888
##cy 8889
rom 8890
##view 8891
open 8892
ktv 8893
do 8894
server 8895
##lo 8896
if 8897
english 8898
##ね 8899
##５ 8900
##oo 8901
1600 8902
##02 8903
step1 8904
kong 8905
club 8906
135 8907
july 8908
inc 8909
1976 8910
mr 8911
hi 8912
##net 8913
touch 8914
##ls 8915
##ii 8916
michael 8917
lcd 8918
##05 8919
##33 8920
phone 8921
james 8922
step2 8923
1300 8924
ios9 8925
##box 8926
dc 8927
##２ 8928
##ley 8929
samsung 8930
111 8931
280 8932
pokemon 8933
css 8934
##ent 8935
##les 8936
いいえ 8937
##１ 8938
s8 8939
atom 8940
play 8941
bmw 8942
##said 8943
sa 8944
etf 8945
ctrl 8946
♥yoyo♥ 8947
##55 8948
2025 8949
##2014 8950
##66 8951
adidas 8952
amazon 8953
1958 8954
##ber 8955
##ner 8956
visa 8957
##77 8958
##der 8959
1800 8960
connectivity 8961
##hi 8962
firefox 8963
109 8964
118 8965
hr 8966
so 8967
style 8968
mark 8969
pop 8970
ol 8971
skip 8972
1975 8973
as 8974
##27 8975
##ir 8976
##61 8977
190 8978
mba 8979
##う 8980
##ai 8981
le 8982
##ver 8983
1900 8984
cafe2017 8985
lte 8986
super 8987
113 8988
129 8989
##ron 8990
amd 8991
like 8992
##☆ 8993
are 8994
##ster 8995
we 8996
##sk 8997
paul 8998
data 8999
international 9000
##ft 9001
longchamp 9002
ssd 9003
good 9004
##ート 9005
##ti 9006
reply 9007
##my 9008
↓↓↓ 9009
apr 9010
star 9011
##ker 9012
source 9013
136 9014
js 9015
112 9016
get 9017
force 9018
photo 9019
##one 9020
126 9021
##2013 9022
##ow 9023
link 9024
bbs 9025
1972 9026
goods 9027
##lin 9028
python 9029
119 9030
##ip 9031
game 9032
##ics 9033
##ません 9034
blue 9035
##● 9036
520 9037
##45 9038
page 9039
itunes 9040
##03 9041
1955 9042
260 9043
1968 9044
gt 9045
gif 9046
618 9047
##ff 9048
##47 9049
group 9050
くたさい 9051
about 9052
bar 9053
ganji 9054
##nce 9055
music 9056
lee 9057
not 9058
1977 9059
1971 9060
1973 9061
##per 9062
an 9063
faq 9064
comment 9065
##って 9066
days 9067
##ock 9068
116 9069
##bs 9070
1974 9071
1969 9072
v1 9073
player 9074
1956 9075
xbox 9076
sql 9077
fm 9078
f1 9079
139 9080
##ah 9081
210 9082
##lv 9083
##mp 9084
##000 9085
melody 9086
1957 9087
##３ 9088
550 9089
17life 9090
199 9091
1966 9092
xml 9093
market 9094
##au 9095
##71 9096
999 9097
##04 9098
what 9099
gl 9100
##95 9101
##age 9102
tips 9103
##68 9104
book 9105
##ting 9106
mysql 9107
can 9108
1959 9109
230 9110
##ung 9111
wonderland 9112
watch 9113
10℃ 9114
##ction 9115
9000 9116
mar 9117
mobile 9118
1946 9119
1962 9120
article 9121
##db 9122
part 9123
▲top 9124
party 9125
って 9126
1967 9127
1964 9128
1948 9129
##07 9130
##ore 9131
##op 9132
この 9133
dj 9134
##78 9135
##38 9136
010 9137
main 9138
225 9139
1965 9140
##ong 9141
art 9142
320 9143
ad 9144
134 9145
020 9146
##73 9147
117 9148
pm2 9149
japan 9150
228 9151
##08 9152
ts 9153
1963 9154
##ica 9155
der 9156
sm 9157
##36 9158
2019 9159
##wa 9160
ct 9161
##７ 9162
##や 9163
##64 9164
1937 9165
homemesh 9166
search 9167
##85 9168
##れは 9169
##tv 9170
##di 9171
macbook 9172
##９ 9173
##くたさい 9174
service 9175
##♥ 9176
type 9177
った 9178
750 9179
##ier 9180
##si 9181
##75 9182
##います 9183
##ok 9184
best 9185
##ット 9186
goris 9187
lock 9188
##った 9189
cf 9190
3m 9191
big 9192
##ut 9193
ftp 9194
carol 9195
##vi 9196
１０ 9197
1961 9198
happy 9199
sd 9200
##ac 9201
122 9202
anti 9203
pe 9204
cnn 9205
iii 9206
1920 9207
138 9208
##ラ 9209
1940 9210
esp 9211
jan 9212
tags 9213
##98 9214
##51 9215
august 9216
vol 9217
##86 9218
154 9219
##™ 9220
##fs 9221
##れ 9222
##sion 9223
design 9224
ac 9225
##ム 9226
press 9227
jordan 9228
ppp 9229
that 9230
key 9231
check 9232
##６ 9233
##tt 9234
##㎡ 9235
1080p 9236
##lt 9237
power 9238
##42 9239
1952 9240
##bc 9241
vivi 9242
##ック 9243
he 9244
133 9245
121 9246
jpg 9247
##rry 9248
201 9249
175 9250
3500 9251
1947 9252
nb 9253
##ted 9254
##rn 9255
しています 9256
1954 9257
usd 9258
##t00 9259
master 9260
##ンク 9261
001 9262
model 9263
##58 9264
al 9265
##09 9266
1953 9267
##34 9268
ram 9269
goo 9270
ても 9271
##ui 9272
127 9273
1930 9274
red 9275
##ary 9276
rpg 9277
item 9278
##pm 9279
##41 9280
270 9281
##za 9282
project 9283
##2012 9284
hot 9285
td 9286
blogabstract 9287
##ger 9288
##62 9289
650 9290
##44 9291
gr2 9292
##します 9293
##ｍ 9294
black 9295
electronic 9296
nfc 9297
year 9298
asus 9299
また 9300
html5 9301
cindy 9302
##hd 9303
m3 9304
132 9305
esc 9306
##od 9307
booking 9308
##53 9309
fed 9310
tvb 9311
##81 9312
##ina 9313
mit 9314
165 9315
##いる 9316
chan 9317
192 9318
distribution 9319
next 9320
になる 9321
peter 9322
bios 9323
steam 9324
cm 9325
1941 9326
にも 9327
pk10 9328
##ix 9329
##65 9330
##91 9331
dec 9332
nasa 9333
##ana 9334
icecat 9335
00z 9336
b1 9337
will 9338
##46 9339
li 9340
se 9341
##ji 9342
##み 9343
##ard 9344
oct 9345
##ain 9346
jp 9347
##ze 9348
##bi 9349
cio 9350
##56 9351
smart 9352
h5 9353
##39 9354
##port 9355
curve 9356
vpn 9357
##nm 9358
##dia 9359
utc 9360
##あり 9361
12345678910 9362
##52 9363
rmvb 9364
chanel 9365
a4 9366
miss 9367
##and 9368
##im 9369
media 9370
who 9371
##63 9372
she 9373
girl 9374
5s 9375
124 9376
vera 9377
##して 9378
class 9379
vivo 9380
king 9381
##フ 9382
##ei 9383
national 9384
ab 9385
1951 9386
5cm 9387
888 9388
145 9389
ipod 9390
ap 9391
1100 9392
5mm 9393
211 9394
ms 9395
2756 9396
##69 9397
mp4 9398
msci 9399
##po 9400
##89 9401
131 9402
mg 9403
index 9404
380 9405
##bit 9406
##out 9407
##zz 9408
##97 9409
##67 9410
158 9411
apec 9412
##８ 9413
photoshop 9414
opec 9415
￥799 9416
ては 9417
##96 9418
##tes 9419
##ast 9420
2g 9421
○○ 9422
##ール 9423
￥2899 9424
##ling 9425
##よ 9426
##ory 9427
1938 9428
##ical 9429
kitty 9430
content 9431
##43 9432
step3 9433
##cn 9434
win8 9435
155 9436
vc 9437
1400 9438
iphone7 9439
robert 9440
##した 9441
tcl 9442
137 9443
beauty 9444
##87 9445
en 9446
dollars 9447
##ys 9448
##oc 9449
step 9450
pay 9451
yy 9452
a1 9453
##2011 9454
##lly 9455
##ks 9456
##♪ 9457
1939 9458
188 9459
download 9460
1944 9461
sep 9462
exe 9463
ph 9464
います 9465
school 9466
gb 9467
center 9468
pr 9469
street 9470
##board 9471
uv 9472
##37 9473
##lan 9474
winrar 9475
##que 9476
##ua 9477
##com 9478
1942 9479
1936 9480
480 9481
gpu 9482
##４ 9483
ettoday 9484
fu 9485
tom 9486
##54 9487
##ren 9488
##via 9489
149 9490
##72 9491
b2b 9492
144 9493
##79 9494
##tch 9495
rose 9496
arm 9497
mb 9498
##49 9499
##ial 9500
##nn 9501
nvidia 9502
step4 9503
mvp 9504
00㎡ 9505
york 9506
156 9507
##イ 9508
how 9509
cpi 9510
591 9511
2765 9512
gov 9513
kg 9514
joe 9515
##xx 9516
mandy 9517
pa 9518
##ser 9519
copyright 9520
fashion 9521
1935 9522
don 9523
##け 9524
ecu 9525
##ist 9526
##art 9527
erp 9528
wap 9529
have 9530
##lm 9531
talk 9532
##ek 9533
##ning 9534
##if 9535
ch 9536
##ite 9537
video 9538
1943 9539
cs 9540
san 9541
iot 9542
look 9543
##84 9544
##2010 9545
##ku 9546
october 9547
##ux 9548
trump 9549
##hs 9550
##ide 9551
box 9552
141 9553
first 9554
##ins 9555
april 9556
##ight 9557
##83 9558
185 9559
angel 9560
protected 9561
aa 9562
151 9563
162 9564
x1 9565
m2 9566
##fe 9567
##× 9568
##ho 9569
size 9570
143 9571
min 9572
ofo 9573
fun 9574
gomaji 9575
ex 9576
hdmi 9577
food 9578
dns 9579
march 9580
chris 9581
kevin 9582
##のか 9583
##lla 9584
##pp 9585
##ec 9586
ag 9587
ems 9588
6s 9589
720p 9590
##rm 9591
##ham 9592
off 9593
##92 9594
asp 9595
team 9596
fandom 9597
ed 9598
299 9599
▌♥ 9600
##ell 9601
info 9602
されています 9603
##82 9604
sina 9605
4066 9606
161 9607
##able 9608
##ctor 9609
330 9610
399 9611
315 9612
dll 9613
rights 9614
ltd 9615
idc 9616
jul 9617
3kg 9618
1927 9619
142 9620
ma 9621
surface 9622
##76 9623
##ク 9624
～～～ 9625
304 9626
mall 9627
eps 9628
146 9629
green 9630
##59 9631
map 9632
space 9633
donald 9634
v2 9635
sodu 9636
##light 9637
1931 9638
148 9639
1700 9640
まて 9641
310 9642
reserved 9643
htm 9644
##han 9645
##57 9646
2d 9647
178 9648
mod 9649
##ise 9650
##tions 9651
152 9652
ti 9653
##shi 9654
doc 9655
1933 9656
icp 9657
055 9658
wang 9659
##ram 9660
shopping 9661
aug 9662
##pi 9663
##well 9664
now 9665
wam 9666
b2 9667
からお 9668
##hu 9669
236 9670
1928 9671
##gb 9672
266 9673
f2 9674
##93 9675
153 9676
mix 9677
##ef 9678
##uan 9679
bwl 9680
##plus 9681
##res 9682
core 9683
##ess 9684
tea 9685
5℃ 9686
hktvmall 9687
nhk 9688
##ate 9689
list 9690
##ese 9691
301 9692
feb 9693
4m 9694
inn 9695
ての 9696
nov 9697
159 9698
12345 9699
daniel 9700
##ci 9701
pass 9702
##bet 9703
##nk 9704
coffee 9705
202 9706
ssl 9707
airbnb 9708
##ute 9709
fbi 9710
woshipm 9711
skype 9712
ea 9713
cg 9714
sp 9715
##fc 9716
##www 9717
yes 9718
edge 9719
alt 9720
007 9721
##94 9722
fpga 9723
##ght 9724
##gs 9725
iso9001 9726
さい 9727
##ile 9728
##wood 9729
##uo 9730
image 9731
lin 9732
icon 9733
american 9734
##em 9735
1932 9736
set 9737
says 9738
##king 9739
##tive 9740
blogger 9741
##74 9742
なと 9743
256 9744
147 9745
##ox 9746
##zy 9747
##red 9748
##ium 9749
##lf 9750
nokia 9751
claire 9752
##リ 9753
##ding 9754
november 9755
lohas 9756
##500 9757
##tic 9758
##マ 9759
##cs 9760
##ある 9761
##che 9762
##ire 9763
##gy 9764
##ult 9765
db 9766
january 9767
win 9768
##カ 9769
166 9770
road 9771
ptt 9772
##ま 9773
##つ 9774
198 9775
##fa 9776
##mer 9777
anna 9778
pchome 9779
はい 9780
udn 9781
ef 9782
420 9783
##time 9784
##tte 9785
2030 9786
##ア 9787
g20 9788
white 9789
かかります 9790
1929 9791
308 9792
garden 9793
eleven 9794
di 9795
##おります 9796
chen 9797
309b 9798
777 9799
172 9800
young 9801
cosplay 9802
ちてない 9803
4500 9804
bat 9805
##123 9806
##tra 9807
##ては 9808
kindle 9809
npc 9810
steve 9811
etc 9812
##ern 9813
##｜ 9814
call 9815
xperia 9816
ces 9817
travel 9818
sk 9819
s7 9820
##ous 9821
1934 9822
##int 9823
みいたたけます 9824
183 9825
edu 9826
file 9827
cho 9828
qr 9829
##car 9830
##our 9831
186 9832
##ant 9833
##ｄ 9834
eric 9835
1914 9836
rends 9837
##jo 9838
##する 9839
mastercard 9840
##2000 9841
kb 9842
##min 9843
290 9844
##ino 9845
vista 9846
##ris 9847
##ud 9848
jack 9849
2400 9850
##set 9851
169 9852
pos 9853
1912 9854
##her 9855
##ou 9856
taipei 9857
しく 9858
205 9859
beta 9860
##ませんか 9861
232 9862
##fi 9863
express 9864
255 9865
body 9866
##ill 9867
aphojoy 9868
user 9869
december 9870
meiki 9871
##ick 9872
tweet 9873
richard 9874
##av 9875
##ᆫ 9876
iphone6 9877
##dd 9878
ちてすか 9879
views 9880
##mark 9881
321 9882
pd 9883
##００ 9884
times 9885
##▲ 9886
level 9887
##ash 9888
10g 9889
point 9890
5l 9891
##ome 9892
208 9893
koreanmall 9894
##ak 9895
george 9896
q2 9897
206 9898
wma 9899
tcp 9900
##200 9901
スタッフ 9902
full 9903
mlb 9904
##lle 9905
##watch 9906
tm 9907
run 9908
179 9909
911 9910
smith 9911
business 9912
##und 9913
1919 9914
color 9915
##tal 9916
222 9917
171 9918
##less 9919
moon 9920
4399 9921
##rl 9922
update 9923
pcb 9924
shop 9925
499 9926
157 9927
little 9928
なし 9929
end 9930
##mhz 9931
van 9932
dsp 9933
easy 9934
660 9935
##house 9936
##key 9937
history 9938
##ｏ 9939
oh 9940
##001 9941
##hy 9942
##web 9943
oem 9944
let 9945
was 9946
##2009 9947
##gg 9948
review 9949
##wan 9950
182 9951
##°c 9952
203 9953
uc 9954
title 9955
##val 9956
united 9957
233 9958
2021 9959
##ons 9960
doi 9961
trivago 9962
overdope 9963
sbs 9964
##ance 9965
##ち 9966
grand 9967
special 9968
573032185 9969
imf 9970
216 9971
wx17house 9972
##so 9973
##ーム 9974
audi 9975
##he 9976
london 9977
william 9978
##rp 9979
##ake 9980
science 9981
beach 9982
cfa 9983
amp 9984
ps4 9985
880 9986
##800 9987
##link 9988
##hp 9989
crm 9990
ferragamo 9991
bell 9992
make 9993
##eng 9994
195 9995
under 9996
zh 9997
photos 9998
2300 9999
##style 10000
##ント 10001
via 10002
176 10003
da 10004
##gi 10005
company 10006
i7 10007
##ray 10008
thomas 10009
370 10010
ufo 10011
i5 10012
##max 10013
plc 10014
ben 10015
back 10016
research 10017
8g 10018
173 10019
mike 10020
##pc 10021
##ッフ 10022
september 10023
189 10024
##ace 10025
vps 10026
february 10027
167 10028
pantos 10029
wp 10030
lisa 10031
1921 10032
★★ 10033
jquery 10034
night 10035
long 10036
offer 10037
##berg 10038
##news 10039
1911 10040
##いて 10041
ray 10042
fks 10043
wto 10044
せます 10045
over 10046
164 10047
340 10048
##all 10049
##rus 10050
1924 10051
##888 10052
##works 10053
blogtitle 10054
loftpermalink 10055
##→ 10056
187 10057
martin 10058
test 10059
ling 10060
km 10061
##め 10062
15000 10063
fda 10064
v3 10065
##ja 10066
##ロ 10067
ｗedding 10068
かある 10069
outlet 10070
family 10071
##ea 10072
をこ 10073
##top 10074
story 10075
##ness 10076
salvatore 10077
##lu 10078
204 10079
swift 10080
215 10081
room 10082
している 10083
oracle 10084
##ul 10085
1925 10086
sam 10087
b2c 10088
week 10089
pi 10090
rock 10091
##のは 10092
##ａ 10093
##けと 10094
##ean 10095
##300 10096
##gle 10097
cctv 10098
after 10099
chinese 10100
##back 10101
powered 10102
x2 10103
##tan 10104
1918 10105
##nes 10106
##イン 10107
canon 10108
only 10109
181 10110
##zi 10111
##las 10112
say 10113
##oe 10114
184 10115
##sd 10116
221 10117
##bot 10118
##world 10119
##zo 10120
sky 10121
made 10122
top100 10123
just 10124
1926 10125
pmi 10126
802 10127
234 10128
gap 10129
##vr 10130
177 10131
les 10132
174 10133
▲topoct 10134
ball 10135
vogue 10136
vi 10137
ing 10138
ofweek 10139
cos 10140
##list 10141
##ort 10142
▲topmay 10143
##なら 10144
##lon 10145
として 10146
last 10147
##tc 10148
##of 10149
##bus 10150
##gen 10151
real 10152
eva 10153
##コ 10154
a3 10155
nas 10156
##lie 10157
##ria 10158
##coin 10159
##bt 10160
▲topapr 10161
his 10162
212 10163
cat 10164
nata 10165
vive 10166
health 10167
⋯⋯ 10168
drive 10169
sir 10170
▲topmar 10171
du 10172
cup 10173
##カー 10174
##ook 10175
##よう 10176
##sy 10177
alex 10178
msg 10179
tour 10180
しました 10181
3ce 10182
##word 10183
193 10184
ebooks 10185
r8 10186
block 10187
318 10188
##より 10189
2200 10190
nice 10191
pvp 10192
207 10193
months 10194
1905 10195
rewards 10196
##ther 10197
1917 10198
0800 10199
##xi 10200
##チ 10201
##sc 10202
micro 10203
850 10204
gg 10205
blogfp 10206
op 10207
1922 10208
daily 10209
m1 10210
264 10211
true 10212
##bb 10213
ml 10214
##tar 10215
##のお 10216
##ky 10217
anthony 10218
196 10219
253 10220
##yo 10221
state 10222
218 10223
##ara 10224
##aa 10225
##rc 10226
##tz 10227
##ston 10228
より 10229
gear 10230
##eo 10231
##ade 10232
ge 10233
see 10234
1923 10235
##win 10236
##ura 10237
ss 10238
heart 10239
##den 10240
##ita 10241
down 10242
##sm 10243
el 10244
png 10245
2100 10246
610 10247
rakuten 10248
whatsapp 10249
bay 10250
dream 10251
add 10252
##use 10253
680 10254
311 10255
pad 10256
gucci 10257
mpv 10258
##ode 10259
##fo 10260
island 10261
▲topjun 10262
##▼ 10263
223 10264
jason 10265
214 10266
chicago 10267
##❤ 10268
しの 10269
##hone 10270
io 10271
##れる 10272
##ことか 10273
sogo 10274
be2 10275
##ology 10276
990 10277
cloud 10278
vcd 10279
##con 10280
2～3 10281
##ford 10282
##joy 10283
##kb 10284
##こさいます 10285
##rade 10286
but 10287
##ach 10288
docker 10289
##ful 10290
rfid 10291
ul 10292
##ase 10293
hit 10294
ford 10295
##star 10296
580 10297
##○ 10298
１１ 10299
a2 10300
sdk 10301
reading 10302
edited 10303
##are 10304
cmos 10305
##mc 10306
238 10307
siri 10308
light 10309
##ella 10310
##ため 10311
bloomberg 10312
##read 10313
pizza 10314
##ison 10315
jimmy 10316
##vm 10317
college 10318
node 10319
journal 10320
ba 10321
18k 10322
##play 10323
245 10324
##cer 10325
２０ 10326
magic 10327
##yu 10328
191 10329
jump 10330
288 10331
tt 10332
##ings 10333
asr 10334
##lia 10335
3200 10336
step5 10337
network 10338
##cd 10339
mc 10340
いします 10341
1234 10342
pixstyleme 10343
273 10344
##600 10345
2800 10346
money 10347
★★★★★ 10348
1280 10349
１２ 10350
430 10351
bl 10352
みの 10353
act 10354
##tus 10355
tokyo 10356
##rial 10357
##life 10358
emba 10359
##ae 10360
saas 10361
tcs 10362
##rk 10363
##wang 10364
summer 10365
##sp 10366
ko 10367
##ving 10368
390 10369
premium 10370
##その 10371
netflix 10372
##ヒ 10373
uk 10374
mt 10375
##lton 10376
right 10377
frank 10378
two 10379
209 10380
える 10381
##ple 10382
##cal 10383
021 10384
##んな 10385
##sen 10386
##ville 10387
hold 10388
nexus 10389
dd 10390
##ius 10391
てお 10392
##mah 10393
##なく 10394
tila 10395
zero 10396
820 10397
ce 10398
##tin 10399
resort 10400
##ws 10401
charles 10402
old 10403
p10 10404
5d 10405
report 10406
##360 10407
##ru 10408
##には 10409
bus 10410
vans 10411
lt 10412
##est 10413
pv 10414
##レ 10415
links 10416
rebecca 10417
##ツ 10418
##dm 10419
azure 10420
##365 10421
きな 10422
limited 10423
bit 10424
4gb 10425
##mon 10426
1910 10427
moto 10428
##eam 10429
213 10430
1913 10431
var 10432
eos 10433
なとの 10434
226 10435
blogspot 10436
された 10437
699 10438
e3 10439
dos 10440
dm 10441
fc 10442
##ments 10443
##ik 10444
##kw 10445
boy 10446
##bin 10447
##ata 10448
960 10449
er 10450
##せ 10451
219 10452
##vin 10453
##tu 10454
##ula 10455
194 10456
##∥ 10457
station 10458
##ろ 10459
##ature 10460
835 10461
files 10462
zara 10463
hdr 10464
top10 10465
nature 10466
950 10467
magazine 10468
s6 10469
marriott 10470
##シ 10471
avira 10472
case 10473
##っと 10474
tab 10475
##ran 10476
tony 10477
##home 10478
oculus 10479
im 10480
##ral 10481
jean 10482
saint 10483
cry 10484
307 10485
rosie 10486
##force 10487
##ini 10488
ice 10489
##bert 10490
のある 10491
##nder 10492
##mber 10493
pet 10494
2600 10495
##◆ 10496
plurk 10497
▲topdec 10498
##sis 10499
00kg 10500
▲topnov 10501
720 10502
##ence 10503
tim 10504
##ω 10505
##nc 10506
##ても 10507
##name 10508
log 10509
ips 10510
great 10511
ikea 10512
malaysia 10513
unix 10514
##イト 10515
3600 10516
##ncy 10517
##nie 10518
12000 10519
akb48 10520
##ye 10521
##oid 10522
404 10523
##chi 10524
##いた 10525
oa 10526
xuehai 10527
##1000 10528
##orm 10529
##rf 10530
275 10531
さん 10532
##ware 10533
##リー 10534
980 10535
ho 10536
##pro 10537
text 10538
##era 10539
560 10540
bob 10541
227 10542
##ub 10543
##2008 10544
8891 10545
scp 10546
avi 10547
##zen 10548
2022 10549
mi 10550
wu 10551
museum 10552
qvod 10553
apache 10554
lake 10555
jcb 10556
▲topaug 10557
★★★ 10558
ni 10559
##hr 10560
hill 10561
302 10562
ne 10563
weibo 10564
490 10565
ruby 10566
##ーシ 10567
##ヶ 10568
##row 10569
4d 10570
▲topjul 10571
iv 10572
##ish 10573
github 10574
306 10575
mate 10576
312 10577
##スト 10578
##lot 10579
##ane 10580
andrew 10581
のハイト 10582
##tina 10583
t1 10584
rf 10585
ed2k 10586
##vel 10587
##900 10588
way 10589
final 10590
りの 10591
ns 10592
5a 10593
705 10594
197 10595
##メ 10596
sweet 10597
bytes 10598
##ene 10599
▲topjan 10600
231 10601
##cker 10602
##2007 10603
##px 10604
100g 10605
topapp 10606
229 10607
helpapp 10608
rs 10609
low 10610
14k 10611
g4g 10612
care 10613
630 10614
ldquo 10615
あり 10616
##fork 10617
leave 10618
rm 10619
edition 10620
##gan 10621
##zon 10622
##qq 10623
▲topsep 10624
##google 10625
##ism 10626
gold 10627
224 10628
explorer 10629
##zer 10630
toyota 10631
category 10632
select 10633
visual 10634
##labels 10635
restaurant 10636
##md 10637
posts 10638
s1 10639
##ico 10640
もっと 10641
angelababy 10642
123456 10643
217 10644
sports 10645
s3 10646
mbc 10647
1915 10648
してくたさい 10649
shell 10650
x86 10651
candy 10652
##new 10653
kbs 10654
face 10655
xl 10656
470 10657
##here 10658
4a 10659
swissinfo 10660
v8 10661
▲topfeb 10662
dram 10663
##ual 10664
##vice 10665
3a 10666
##wer 10667
sport 10668
q1 10669
ios10 10670
public 10671
int 10672
card 10673
##ｃ 10674
ep 10675
au 10676
rt 10677
##れた 10678
1080 10679
bill 10680
##mll 10681
kim 10682
３０ 10683
460 10684
wan 10685
##uk 10686
##ミ 10687
x3 10688
298 10689
0t 10690
scott 10691
##ming 10692
239 10693
e5 10694
##3d 10695
h7n9 10696
worldcat 10697
brown 10698
##あります 10699
##vo 10700
##led 10701
##580 10702
##ax 10703
249 10704
410 10705
##ert 10706
paris 10707
##～6 10708
polo 10709
925 10710
##lr 10711
599 10712
##ナ 10713
capital 10714
##hing 10715
bank 10716
cv 10717
1g 10718
##chat 10719
##ｓ 10720
##たい 10721
adc 10722
##ule 10723
2m 10724
##ｅ 10725
digital 10726
hotmail 10727
268 10728
##pad 10729
870 10730
bbq 10731
quot 10732
##ring 10733
before 10734
wali 10735
##まて 10736
mcu 10737
2k 10738
2b 10739
という 10740
costco 10741
316 10742
north 10743
333 10744
switch 10745
##city 10746
##ｐ 10747
philips 10748
##mann 10749
management 10750
panasonic 10751
##cl 10752
##vd 10753
##ping 10754
##rge 10755
alice 10756
##lk 10757
##ましょう 10758
css3 10759
##ney 10760
vision 10761
alpha 10762
##ular 10763
##400 10764
##tter 10765
lz 10766
にお 10767
##ありません 10768
mode 10769
gre 10770
1916 10771
pci 10772
##tm 10773
237 10774
1～2 10775
##yan 10776
##そ 10777
について 10778
##let 10779
##キ 10780
work 10781
war 10782
coach 10783
ah 10784
mary 10785
##ᅵ 10786
huang 10787
##pt 10788
a8 10789
pt 10790
follow 10791
##berry 10792
1895 10793
##ew 10794
a5 10795
ghost 10796
##ション 10797
##wn 10798
##og 10799
south 10800
##code 10801
girls 10802
##rid 10803
action 10804
villa 10805
git 10806
r11 10807
table 10808
games 10809
##cket 10810
error 10811
##anonymoussaid 10812
##ag 10813
here 10814
##ame 10815
##gc 10816
qa 10817
##■ 10818
##lis 10819
gmp 10820
##gin 10821
vmalife 10822
##cher 10823
yu 10824
wedding 10825
##tis 10826
demo 10827
dragon 10828
530 10829
soho 10830
social 10831
bye 10832
##rant 10833
river 10834
orz 10835
acer 10836
325 10837
##↑ 10838
##ース 10839
##ats 10840
261 10841
del 10842
##ven 10843
440 10844
ups 10845
##ように 10846
##ター 10847
305 10848
value 10849
macd 10850
yougou 10851
##dn 10852
661 10853
##ano 10854
ll 10855
##urt 10856
##rent 10857
continue 10858
script 10859
##wen 10860
##ect 10861
paper 10862
263 10863
319 10864
shift 10865
##chel 10866
##フト 10867
##cat 10868
258 10869
x5 10870
fox 10871
243 10872
##さん 10873
car 10874
aaa 10875
##blog 10876
loading 10877
##yn 10878
##tp 10879
kuso 10880
799 10881
si 10882
sns 10883
イカせるテンマ 10884
ヒンクテンマ3 10885
rmb 10886
vdc 10887
forest 10888
central 10889
prime 10890
help 10891
ultra 10892
##rmb 10893
##ような 10894
241 10895
square 10896
688 10897
##しい 10898
のないフロクに 10899
##field 10900
##reen 10901
##ors 10902
##ju 10903
c1 10904
start 10905
510 10906
##air 10907
##map 10908
cdn 10909
##wo 10910
cba 10911
stephen 10912
m8 10913
100km 10914
##get 10915
opera 10916
##base 10917
##ood 10918
vsa 10919
com™ 10920
##aw 10921
##ail 10922
251 10923
なのて 10924
count 10925
t2 10926
##ᅡ 10927
##een 10928
2700 10929
hop 10930
##gp 10931
vsc 10932
tree 10933
##eg 10934
##ose 10935
816 10936
285 10937
##ories 10938
##shop 10939
alphago 10940
v4 10941
1909 10942
simon 10943
##ᆼ 10944
fluke62max 10945
zip 10946
スホンサー 10947
##sta 10948
louis 10949
cr 10950
bas 10951
##～10 10952
bc 10953
##yer 10954
hadoop 10955
##ube 10956
##wi 10957
1906 10958
0755 10959
hola 10960
##low 10961
place 10962
centre 10963
5v 10964
d3 10965
##fer 10966
252 10967
##750 10968
##media 10969
281 10970
540 10971
0l 10972
exchange 10973
262 10974
series 10975
##ハー 10976
##san 10977
eb 10978
##bank 10979
##ｋ 10980
q3 10981
##nge 10982
##mail 10983
take 10984
##lp 10985
259 10986
1888 10987
client 10988
east 10989
cache 10990
event 10991
vincent 10992
##ールを 10993
きを 10994
##nse 10995
sui 10996
855 10997
adchoice 10998
##и 10999
##stry 11000
##なたの 11001
246 11002
##zone 11003
ga 11004
apps 11005
sea 11006
##ab 11007
248 11008
cisco 11009
##タ 11010
##rner 11011
kymco 11012
##care 11013
dha 11014
##pu 11015
##yi 11016
minkoff 11017
royal 11018
p1 11019
への 11020
annie 11021
269 11022
collection 11023
kpi 11024
playstation 11025
257 11026
になります 11027
866 11028
bh 11029
##bar 11030
queen 11031
505 11032
radio 11033
1904 11034
andy 11035
armani 11036
##xy 11037
manager 11038
iherb 11039
##ery 11040
##share 11041
spring 11042
raid 11043
johnson 11044
1908 11045
##ob 11046
volvo 11047
hall 11048
##ball 11049
v6 11050
our 11051
taylor 11052
##hk 11053
bi 11054
242 11055
##cp 11056
kate 11057
bo 11058
water 11059
technology 11060
##rie 11061
サイトは 11062
277 11063
##ona 11064
##sl 11065
hpv 11066
303 11067
gtx 11068
hip 11069
rdquo 11070
jayz 11071
stone 11072
##lex 11073
##rum 11074
namespace 11075
##やり 11076
620 11077
##ale 11078
##atic 11079
des 11080
##erson 11081
##ql 11082
##ves 11083
##type 11084
enter 11085
##この 11086
##てきます 11087
d2 11088
##168 11089
##mix 11090
##bian 11091
との 11092
a9 11093
jj 11094
ky 11095
##lc 11096
access 11097
movie 11098
##hc 11099
リストに 11100
tower 11101
##ration 11102
##mit 11103
ます 11104
##nch 11105
ua 11106
tel 11107
prefix 11108
##o2 11109
1907 11110
##point 11111
1901 11112
ott 11113
～10 11114
##http 11115
##ury 11116
baidu 11117
##ink 11118
member 11119
##logy 11120
bigbang 11121
nownews 11122
##js 11123
##shot 11124
##tb 11125
##こと 11126
247 11127
eba 11128
##tics 11129
##lus 11130
ける 11131
v5 11132
spark 11133
##ama 11134
there 11135
##ions 11136
god 11137
##lls 11138
##down 11139
hiv 11140
##ress 11141
burberry 11142
day2 11143
##kv 11144
◆◆ 11145
jeff 11146
related 11147
film 11148
edit 11149
joseph 11150
283 11151
##ark 11152
cx 11153
32gb 11154
order 11155
g9 11156
30000 11157
##ans 11158
##tty 11159
s5 11160
##bee 11161
かあります 11162
thread 11163
xr 11164
buy 11165
sh 11166
005 11167
land 11168
spotify 11169
mx 11170
##ari 11171
276 11172
##verse 11173
×email 11174
sf 11175
why 11176
##ことて 11177
244 11178
7headlines 11179
nego 11180
sunny 11181
dom 11182
exo 11183
401 11184
666 11185
positioning 11186
fit 11187
rgb 11188
##tton 11189
278 11190
kiss 11191
alexa 11192
adam 11193
lp 11194
みリストを 11195
##ｇ 11196
mp 11197
##ties 11198
##llow 11199
amy 11200
##du 11201
np 11202
002 11203
institute 11204
271 11205
##rth 11206
##lar 11207
2345 11208
590 11209
##des 11210
sidebar 11211
１５ 11212
imax 11213
site 11214
##cky 11215
##kit 11216
##ime 11217
##009 11218
season 11219
323 11220
##fun 11221
##ンター 11222
##ひ 11223
gogoro 11224
a7 11225
pu 11226
lily 11227
fire 11228
twd600 11229
##ッセーシを 11230
いて 11231
##vis 11232
30ml 11233
##cture 11234
##をお 11235
information 11236
##オ 11237
close 11238
friday 11239
##くれる 11240
yi 11241
nick 11242
てすか 11243
##tta 11244
##tel 11245
6500 11246
##lock 11247
cbd 11248
economy 11249
254 11250
かお 11251
267 11252
tinker 11253
double 11254
375 11255
8gb 11256
voice 11257
##app 11258
oops 11259
channel 11260
today 11261
985 11262
##right 11263
raw 11264
xyz 11265
##＋ 11266
jim 11267
edm 11268
##cent 11269
7500 11270
supreme 11271
814 11272
ds 11273
##its 11274
##asia 11275
dropbox 11276
##てすか 11277
##tti 11278
books 11279
272 11280
100ml 11281
##tle 11282
##ller 11283
##ken 11284
##more 11285
##boy 11286
sex 11287
309 11288
##dom 11289
t3 11290
##ider 11291
##なります 11292
##unch 11293
1903 11294
810 11295
feel 11296
5500 11297
##かった 11298
##put 11299
により 11300
s2 11301
mo 11302
##gh 11303
men 11304
ka 11305
amoled 11306
div 11307
##tr 11308
##n1 11309
port 11310
howard 11311
##tags 11312
ken 11313
dnf 11314
##nus 11315
adsense 11316
##а 11317
ide 11318
##へ 11319
buff 11320
thunder 11321
##town 11322
##ique 11323
has 11324
##body 11325
auto 11326
pin 11327
##erry 11328
tee 11329
てした 11330
295 11331
number 11332
##the 11333
##013 11334
object 11335
psp 11336
cool 11337
udnbkk 11338
16gb 11339
##mic 11340
miui 11341
##tro 11342
most 11343
r2 11344
##alk 11345
##nity 11346
1880 11347
±0 11348
##いました 11349
428 11350
s4 11351
law 11352
version 11353
##oa 11354
n1 11355
sgs 11356
docomo 11357
##tf 11358
##ack 11359
henry 11360
fc2 11361
##ded 11362
##sco 11363
##014 11364
##rite 11365
286 11366
0mm 11367
linkedin 11368
##ada 11369
##now 11370
wii 11371
##ndy 11372
ucbug 11373
##◎ 11374
sputniknews 11375
legalminer 11376
##ika 11377
##xp 11378
2gb 11379
##bu 11380
q10 11381
oo 11382
b6 11383
come 11384
##rman 11385
cheese 11386
ming 11387
maker 11388
##gm 11389
nikon 11390
##fig 11391
ppi 11392
kelly 11393
##ります 11394
jchere 11395
てきます 11396
ted 11397
md 11398
003 11399
fgo 11400
tech 11401
##tto 11402
dan 11403
soc 11404
##gl 11405
##len 11406
hair 11407
earth 11408
640 11409
521 11410
img 11411
##pper 11412
##a1 11413
##てきる 11414
##ロク 11415
acca 11416
##ition 11417
##ference 11418
suite 11419
##ig 11420
outlook 11421
##mond 11422
##cation 11423
398 11424
##pr 11425
279 11426
101vip 11427
358 11428
##999 11429
282 11430
64gb 11431
3800 11432
345 11433
airport 11434
##over 11435
284 11436
##おり 11437
jones 11438
##ith 11439
lab 11440
##su 11441
##いるのて 11442
co2 11443
town 11444
piece 11445
##llo 11446
no1 11447
vmware 11448
24h 11449
##qi 11450
focus 11451
reader 11452
##admin 11453
##ora 11454
tb 11455
false 11456
##log 11457
1898 11458
know 11459
lan 11460
838 11461
##ces 11462
f4 11463
##ume 11464
motel 11465
stop 11466
##oper 11467
na 11468
flickr 11469
netcomponents 11470
##af 11471
##─ 11472
pose 11473
williams 11474
local 11475
##ound 11476
##cg 11477
##site 11478
##iko 11479
いお 11480
274 11481
5m 11482
gsm 11483
con 11484
##ath 11485
1902 11486
friends 11487
##hip 11488
cell 11489
317 11490
##rey 11491
780 11492
cream 11493
##cks 11494
012 11495
##dp 11496
facebooktwitterpinterestgoogle 11497
sso 11498
324 11499
shtml 11500
song 11501
swiss 11502
##mw 11503
##キンク 11504
lumia 11505
xdd 11506
string 11507
tiffany 11508
522 11509
marc 11510
られた 11511
insee 11512
russell 11513
sc 11514
dell 11515
##ations 11516
ｏｋ 11517
camera 11518
289 11519
##vs 11520
##flow 11521
##late 11522
classic 11523
287 11524
##nter 11525
stay 11526
g1 11527
mtv 11528
512 11529
##ever 11530
##lab 11531
##nger 11532
qe 11533
sata 11534
ryan 11535
d1 11536
50ml 11537
cms 11538
##cing 11539
su 11540
292 11541
3300 11542
editor 11543
296 11544
##nap 11545
security 11546
sunday 11547
association 11548
##ens 11549
##700 11550
##bra 11551
acg 11552
##かり 11553
sofascore 11554
とは 11555
mkv 11556
##ign 11557
jonathan 11558
gary 11559
build 11560
labels 11561
##oto 11562
tesla 11563
moba 11564
qi 11565
gohappy 11566
general 11567
ajax 11568
1024 11569
##かる 11570
サイト 11571
society 11572
##test 11573
##urs 11574
wps 11575
fedora 11576
##ich 11577
mozilla 11578
328 11579
##480 11580
##dr 11581
usa 11582
urn 11583
##lina 11584
##ｒ 11585
grace 11586
##die 11587
##try 11588
##ader 11589
1250 11590
##なり 11591
elle 11592
570 11593
##chen 11594
##ᆯ 11595
price 11596
##ten 11597
uhz 11598
##ough 11599
eq 11600
##hen 11601
states 11602
push 11603
session 11604
balance 11605
wow 11606
506 11607
##cus 11608
##py 11609
when 11610
##ward 11611
##ep 11612
34e 11613
wong 11614
library 11615
prada 11616
##サイト 11617
##cle 11618
running 11619
##ree 11620
313 11621
ck 11622
date 11623
q4 11624
##ctive 11625
##ool 11626
##＞ 11627
mk 11628
##ira 11629
##163 11630
388 11631
die 11632
secret 11633
rq 11634
dota 11635
buffet 11636
は１ヶ 11637
e6 11638
##ez 11639
pan 11640
368 11641
ha 11642
##card 11643
##cha 11644
2a 11645
##さ 11646
alan 11647
day3 11648
eye 11649
f3 11650
##end 11651
france 11652
keep 11653
adi 11654
rna 11655
tvbs 11656
##ala 11657
solo 11658
nova 11659
##え 11660
##tail 11661
##ょう 11662
support 11663
##ries 11664
##なる 11665
##ved 11666
base 11667
copy 11668
iis 11669
fps 11670
##ways 11671
hero 11672
hgih 11673
profile 11674
fish 11675
mu 11676
ssh 11677
entertainment 11678
chang 11679
##wd 11680
click 11681
cake 11682
##ond 11683
pre 11684
##tom 11685
kic 11686
pixel 11687
##ov 11688
##fl 11689
product 11690
6a 11691
##pd 11692
dear 11693
##gate 11694
es 11695
yumi 11696
audio 11697
##² 11698
##sky 11699
echo 11700
bin 11701
where 11702
##ture 11703
329 11704
##ape 11705
find 11706
sap 11707
isis 11708
##なと 11709
nand 11710
##101 11711
##load 11712
##ream 11713
band 11714
a6 11715
525 11716
never 11717
##post 11718
festival 11719
50cm 11720
##we 11721
555 11722
guide 11723
314 11724
zenfone 11725
##ike 11726
335 11727
gd 11728
forum 11729
jessica 11730
strong 11731
alexander 11732
##ould 11733
software 11734
allen 11735
##ious 11736
program 11737
360° 11738
else 11739
lohasthree 11740
##gar 11741
することかてきます 11742
please 11743
##れます 11744
rc 11745
##ggle 11746
##ric 11747
bim 11748
50000 11749
##own 11750
eclipse 11751
355 11752
brian 11753
3ds 11754
##side 11755
061 11756
361 11757
##other 11758
##ける 11759
##tech 11760
##ator 11761
485 11762
engine 11763
##ged 11764
##ｔ 11765
plaza 11766
##fit 11767
cia 11768
ngo 11769
westbrook 11770
shi 11771
tbs 11772
50mm 11773
##みませんか 11774
sci 11775
291 11776
reuters 11777
##ily 11778
contextlink 11779
##hn 11780
af 11781
##cil 11782
bridge 11783
very 11784
##cel 11785
1890 11786
cambridge 11787
##ize 11788
15g 11789
##aid 11790
##data 11791
790 11792
frm 11793
##head 11794
award 11795
butler 11796
##sun 11797
meta 11798
##mar 11799
america 11800
ps3 11801
puma 11802
pmid 11803
##すか 11804
lc 11805
670 11806
kitchen 11807
##lic 11808
オーフン5 11809
きなしソフトサーヒス 11810
そして 11811
day1 11812
future 11813
★★★★ 11814
##text 11815
##page 11816
##rris 11817
pm1 11818
##ket 11819
fans 11820
##っています 11821
1001 11822
christian 11823
bot 11824
kids 11825
trackback 11826
##hai 11827
c3 11828
display 11829
##hl 11830
n2 11831
1896 11832
idea 11833
さんも 11834
##sent 11835
airmail 11836
##ug 11837
##men 11838
pwm 11839
けます 11840
028 11841
##lution 11842
369 11843
852 11844
awards 11845
schemas 11846
354 11847
asics 11848
wikipedia 11849
font 11850
##tional 11851
##vy 11852
c2 11853
293 11854
##れている 11855
##dget 11856
##ein 11857
っている 11858
contact 11859
pepper 11860
スキル 11861
339 11862
##～5 11863
294 11864
##uel 11865
##ument 11866
730 11867
##hang 11868
みてす 11869
q5 11870
##sue 11871
rain 11872
##ndi 11873
wei 11874
swatch 11875
##cept 11876
わせ 11877
331 11878
popular 11879
##ste 11880
##tag 11881
p2 11882
501 11883
trc 11884
1899 11885
##west 11886
##live 11887
justin 11888
honda 11889
ping 11890
messenger 11891
##rap 11892
v9 11893
543 11894
##とは 11895
unity 11896
appqq 11897
はすへて 11898
025 11899
leo 11900
##tone 11901
##テ 11902
##ass 11903
uniqlo 11904
##010 11905
502 11906
her 11907
jane 11908
memory 11909
moneydj 11910
##tical 11911
human 11912
12306 11913
していると 11914
##m2 11915
coc 11916
miacare 11917
##mn 11918
tmt 11919
##core 11920
vim 11921
kk 11922
##may 11923
fan 11924
target 11925
use 11926
too 11927
338 11928
435 11929
2050 11930
867 11931
737 11932
fast 11933
##2c 11934
services 11935
##ope 11936
omega 11937
energy 11938
##わ 11939
pinkoi 11940
1a 11941
##なから 11942
##rain 11943
jackson 11944
##ement 11945
##シャンルの 11946
374 11947
366 11948
そんな 11949
p9 11950
rd 11951
##ᆨ 11952
1111 11953
##tier 11954
##vic 11955
zone 11956
##│ 11957
385 11958
690 11959
dl 11960
isofix 11961
cpa 11962
m4 11963
322 11964
kimi 11965
めて 11966
davis 11967
##lay 11968
lulu 11969
##uck 11970
050 11971
weeks 11972
qs 11973
##hop 11974
920 11975
##ｎ 11976
ae 11977
##ear 11978
～5 11979
eia 11980
405 11981
##fly 11982
korea 11983
jpeg 11984
boost 11985
##ship 11986
small 11987
##リア 11988
1860 11989
eur 11990
297 11991
425 11992
valley 11993
##iel 11994
simple 11995
##ude 11996
rn 11997
k2 11998
##ena 11999
されます 12000
non 12001
patrick 12002
しているから 12003
##ナー 12004
feed 12005
5757 12006
30g 12007
process 12008
well 12009
qqmei 12010
##thing 12011
they 12012
aws 12013
lu 12014
pink 12015
##ters 12016
##kin 12017
または 12018
board 12019
##vertisement 12020
wine 12021
##ien 12022
unicode 12023
##dge 12024
r1 12025
359 12026
##tant 12027
いを 12028
##twitter 12029
##3c 12030
cool1 12031
される 12032
##れて 12033
##ｌ 12034
isp 12035
##012 12036
standard 12037
45㎡2 12038
402 12039
##150 12040
matt 12041
##fu 12042
326 12043
##iner 12044
googlemsn 12045
pixnetfacebookyahoo 12046
##ラン 12047
x7 12048
886 12049
##uce 12050
メーカー 12051
sao 12052
##ev 12053
##きました 12054
##file 12055
9678 12056
403 12057
xddd 12058
shirt 12059
6l 12060
##rio 12061
##hat 12062
3mm 12063
givenchy 12064
ya 12065
bang 12066
##lio 12067
monday 12068
crystal 12069
ロクイン 12070
##abc 12071
336 12072
head 12073
890 12074
ubuntuforumwikilinuxpastechat 12075
##vc 12076
##～20 12077
##rity 12078
cnc 12079
7866 12080
ipv6 12081
null 12082
1897 12083
##ost 12084
yang 12085
imsean 12086
tiger 12087
##fet 12088
##ンス 12089
352 12090
##＝ 12091
dji 12092
327 12093
ji 12094
maria 12095
##come 12096
##んて 12097
foundation 12098
3100 12099
##beth 12100
##なった 12101
1m 12102
601 12103
active 12104
##aft 12105
##don 12106
3p 12107
sr 12108
349 12109
emma 12110
##khz 12111
living 12112
415 12113
353 12114
1889 12115
341 12116
709 12117
457 12118
sas 12119
x6 12120
##face 12121
pptv 12122
x4 12123
##mate 12124
han 12125
sophie 12126
##jing 12127
337 12128
fifa 12129
##mand 12130
other 12131
sale 12132
inwedding 12133
##gn 12134
てきちゃいます 12135
##mmy 12136
##pmlast 12137
bad 12138
nana 12139
nbc 12140
してみてくたさいね 12141
なとはお 12142
##wu 12143
##かあります 12144
##あ 12145
note7 12146
single 12147
##340 12148
せからこ 12149
してくたさい♪この 12150
しにはとんとんワークケートを 12151
するとあなたにもっとマッチした 12152
ならワークケートへ 12153
もみつかっちゃうかも 12154
ワークケートの 12155
##bel 12156
window 12157
##dio 12158
##ht 12159
union 12160
age 12161
382 12162
１４ 12163
##ivity 12164
##ｙ 12165
コメント 12166
domain 12167
neo 12168
##isa 12169
##lter 12170
5k 12171
f5 12172
steven 12173
##cts 12174
powerpoint 12175
tft 12176
self 12177
g2 12178
ft 12179
##テル 12180
zol 12181
##act 12182
mwc 12183
381 12184
343 12185
もう 12186
nbapop 12187
408 12188
てある 12189
eds 12190
ace 12191
##room 12192
previous 12193
author 12194
tomtom 12195
il 12196
##ets 12197
hu 12198
financial 12199
☆☆☆ 12200
っています 12201
bp 12202
5t 12203
chi 12204
1gb 12205
##hg 12206
fairmont 12207
cross 12208
008 12209
gay 12210
h2 12211
function 12212
##けて 12213
356 12214
also 12215
1b 12216
625 12217
##ータ 12218
##raph 12219
1894 12220
3～5 12221
##ils 12222
i3 12223
334 12224
avenue 12225
##host 12226
による 12227
##bon 12228
##tsu 12229
message 12230
navigation 12231
50g 12232
fintech 12233
h6 12234
##ことを 12235
8cm 12236
##ject 12237
##vas 12238
##firm 12239
credit 12240
##wf 12241
xxxx 12242
form 12243
##nor 12244
##space 12245
huawei 12246
plan 12247
json 12248
sbl 12249
##dc 12250
machine 12251
921 12252
392 12253
wish 12254
##120 12255
##sol 12256
windows7 12257
edward 12258
##ために 12259
development 12260
washington 12261
##nsis 12262
lo 12263
818 12264
##sio 12265
##ym 12266
##bor 12267
planet 12268
##～8 12269
##wt 12270
ieee 12271
gpa 12272
##めて 12273
camp 12274
ann 12275
gm 12276
##tw 12277
##oka 12278
connect 12279
##rss 12280
##work 12281
##atus 12282
wall 12283
chicken 12284
soul 12285
2mm 12286
##times 12287
fa 12288
##ather 12289
##cord 12290
009 12291
##eep 12292
hitachi 12293
gui 12294
harry 12295
##pan 12296
e1 12297
disney 12298
##press 12299
##ーション 12300
wind 12301
386 12302
frigidaire 12303
##tl 12304
liu 12305
hsu 12306
332 12307
basic 12308
von 12309
ev 12310
いた 12311
てきる 12312
スホンサーサイト 12313
learning 12314
##ull 12315
expedia 12316
archives 12317
change 12318
##wei 12319
santa 12320
cut 12321
ins 12322
6gb 12323
turbo 12324
brand 12325
cf1 12326
508 12327
004 12328
return 12329
747 12330
##rip 12331
h1 12332
##nis 12333
##をこ 12334
128gb 12335
##にお 12336
3t 12337
application 12338
しており 12339
emc 12340
rx 12341
##oon 12342
384 12343
quick 12344
412 12345
15058 12346
wilson 12347
wing 12348
chapter 12349
##bug 12350
beyond 12351
##cms 12352
##dar 12353
##oh 12354
zoom 12355
e2 12356
trip 12357
sb 12358
##nba 12359
rcep 12360
342 12361
aspx 12362
ci 12363
080 12364
gc 12365
gnu 12366
める 12367
##count 12368
advanced 12369
dance 12370
dv 12371
##url 12372
##ging 12373
367 12374
8591 12375
am09 12376
shadow 12377
battle 12378
346 12379
##ｉ 12380
##cia 12381
##という 12382
emily 12383
##のてす 12384
##tation 12385
host 12386
ff 12387
techorz 12388
sars 12389
##mini 12390
##mporary 12391
##ering 12392
nc 12393
4200 12394
798 12395
##next 12396
cma 12397
##mbps 12398
##gas 12399
##ift 12400
##dot 12401
##ィ 12402
455 12403
##～17 12404
amana 12405
##りの 12406
426 12407
##ros 12408
ir 12409
00㎡1 12410
##eet 12411
##ible 12412
##↓ 12413
710 12414
ˋ▽ˊ 12415
##aka 12416
dcs 12417
iq 12418
##ｖ 12419
l1 12420
##lor 12421
maggie 12422
##011 12423
##iu 12424
588 12425
##～1 12426
830 12427
##gt 12428
1tb 12429
articles 12430
create 12431
##burg 12432
##iki 12433
database 12434
fantasy 12435
##rex 12436
##cam 12437
dlc 12438
dean 12439
##you 12440
hard 12441
path 12442
gaming 12443
victoria 12444
maps 12445
cb 12446
##lee 12447
##itor 12448
overchicstoretvhome 12449
systems 12450
##xt 12451
416 12452
p3 12453
sarah 12454
760 12455
##nan 12456
407 12457
486 12458
x9 12459
install 12460
second 12461
626 12462
##ann 12463
##ph 12464
##rcle 12465
##nic 12466
860 12467
##nar 12468
ec 12469
##とう 12470
768 12471
metro 12472
chocolate 12473
##rian 12474
～4 12475
##table 12476
##しています 12477
skin 12478
##sn 12479
395 12480
mountain 12481
##0mm 12482
inparadise 12483
6m 12484
7x24 12485
ib 12486
4800 12487
##jia 12488
eeworld 12489
creative 12490
g5 12491
g3 12492
357 12493
parker 12494
ecfa 12495
village 12496
からの 12497
18000 12498
sylvia 12499
サーヒス 12500
hbl 12501
##ques 12502
##onsored 12503
##x2 12504
##きます 12505
##v4 12506
##tein 12507
ie6 12508
383 12509
##stack 12510
389 12511
ver 12512
##ads 12513
##baby 12514
sound 12515
bbe 12516
##110 12517
##lone 12518
##uid 12519
ads 12520
022 12521
gundam 12522
351 12523
thinkpad 12524
006 12525
scrum 12526
match 12527
##ave 12528
mems 12529
##470 12530
##oy 12531
##なりました 12532
##talk 12533
glass 12534
lamigo 12535
span 12536
##eme 12537
job 12538
##a5 12539
jay 12540
wade 12541
kde 12542
498 12543
##lace 12544
ocean 12545
tvg 12546
##covery 12547
##r3 12548
##ners 12549
##rea 12550
junior 12551
think 12552
##aine 12553
cover 12554
##ision 12555
##sia 12556
↓↓ 12557
##bow 12558
msi 12559
413 12560
458 12561
406 12562
##love 12563
711 12564
801 12565
soft 12566
z2 12567
##pl 12568
456 12569
1840 12570
mobil 12571
mind 12572
##uy 12573
427 12574
nginx 12575
##oi 12576
めた 12577
##rr 12578
6221 12579
##mple 12580
##sson 12581
##ーシてす 12582
371 12583
##nts 12584
91tv 12585
comhd 12586
crv3000 12587
##uard 12588
1868 12589
397 12590
deep 12591
lost 12592
field 12593
gallery 12594
##bia 12595
rate 12596
spf 12597
redis 12598
traction 12599
930 12600
icloud 12601
011 12602
なら 12603
fe 12604
jose 12605
372 12606
##tory 12607
into 12608
sohu 12609
fx 12610
899 12611
379 12612
kicstart2 12613
##hia 12614
すく 12615
##～3 12616
##sit 12617
ra 12618
２４ 12619
##walk 12620
##xure 12621
500g 12622
##pact 12623
pacific 12624
xa 12625
natural 12626
carlo 12627
##250 12628
##walker 12629
1850 12630
##can 12631
cto 12632
gigi 12633
516 12634
##サー 12635
pen 12636
##hoo 12637
ob 12638
matlab 12639
##ｂ 12640
##yy 12641
13913459 12642
##iti 12643
mango 12644
##bbs 12645
sense 12646
c5 12647
oxford 12648
##ニア 12649
walker 12650
jennifer 12651
##ola 12652
course 12653
##bre 12654
701 12655
##pus 12656
##rder 12657
lucky 12658
075 12659
##ぁ 12660
ivy 12661
なお 12662
##nia 12663
sotheby 12664
side 12665
##ugh 12666
joy 12667
##orage 12668
##ush 12669
##bat 12670
##dt 12671
364 12672
r9 12673
##2d 12674
##gio 12675
511 12676
country 12677
wear 12678
##lax 12679
##～7 12680
##moon 12681
393 12682
seven 12683
study 12684
411 12685
348 12686
lonzo 12687
8k 12688
##ェ 12689
evolution 12690
##イフ 12691
##kk 12692
gs 12693
kd 12694
##レス 12695
arduino 12696
344 12697
b12 12698
##lux 12699
arpg 12700
##rdon 12701
cook 12702
##x5 12703
dark 12704
five 12705
##als 12706
##ida 12707
とても 12708
sign 12709
362 12710
##ちの 12711
something 12712
20mm 12713
##nda 12714
387 12715
##posted 12716
fresh 12717
tf 12718
1870 12719
422 12720
cam 12721
##mine 12722
##skip 12723
##form 12724
##ssion 12725
education 12726
394 12727
##tee 12728
dyson 12729
stage 12730
##jie 12731
want 12732
##night 12733
epson 12734
pack 12735
あります 12736
##ppy 12737
テリヘル 12738
##█ 12739
wd 12740
##eh 12741
##rence 12742
left 12743
##lvin 12744
golden 12745
mhz 12746
discovery 12747
##trix 12748
##n2 12749
loft 12750
##uch 12751
##dra 12752
##sse 12753
speed 12754
～1 12755
1mdb 12756
sorry 12757
welcome 12758
##urn 12759
wave 12760
gaga 12761
##lmer 12762
teddy 12763
##160 12764
トラックハック 12765
せよ 12766
611 12767
##f2016 12768
378 12769
rp 12770
##sha 12771
rar 12772
##あなたに 12773
##きた 12774
840 12775
holiday 12776
##ュー 12777
373 12778
074 12779
##vg 12780
##nos 12781
##rail 12782
gartner 12783
gi 12784
6p 12785
##dium 12786
kit 12787
488 12788
b3 12789
eco 12790
##ろう 12791
20g 12792
sean 12793
##stone 12794
autocad 12795
nu 12796
##np 12797
f16 12798
write 12799
029 12800
m5 12801
##ias 12802
images 12803
atp 12804
##dk 12805
fsm 12806
504 12807
1350 12808
ve 12809
52kb 12810
##xxx 12811
##のに 12812
##cake 12813
414 12814
unit 12815
lim 12816
ru 12817
1v 12818
##ification 12819
published 12820
angela 12821
16g 12822
analytics 12823
ak 12824
##ｑ 12825
##nel 12826
gmt 12827
##icon 12828
again 12829
##₂ 12830
##bby 12831
ios11 12832
445 12833
かこさいます 12834
waze 12835
いてす 12836
##ハ 12837
9985 12838
##ust 12839
##ティー 12840
framework 12841
##007 12842
iptv 12843
delete 12844
52sykb 12845
cl 12846
wwdc 12847
027 12848
30cm 12849
##fw 12850
##ての 12851
1389 12852
##xon 12853
brandt 12854
##ses 12855
##dragon 12856
tc 12857
vetements 12858
anne 12859
monte 12860
modern 12861
official 12862
##へて 12863
##ere 12864
##nne 12865
##oud 12866
もちろん 12867
５０ 12868
etnews 12869
##a2 12870
##graphy 12871
421 12872
863 12873
##ちゃん 12874
444 12875
##rtex 12876
##てお 12877
l2 12878
##gma 12879
mount 12880
ccd 12881
たと 12882
archive 12883
morning 12884
tan 12885
ddos 12886
e7 12887
##ホ 12888
day4 12889
##ウ 12890
gis 12891
453 12892
its 12893
495 12894
factory 12895
bruce 12896
pg 12897
##ito 12898
ってくたさい 12899
guest 12900
cdma 12901
##lling 12902
536 12903
n3 12904
しかし 12905
3～4 12906
mega 12907
eyes 12908
ro 12909
１３ 12910
women 12911
dac 12912
church 12913
##jun 12914
singapore 12915
##facebook 12916
6991 12917
starbucks 12918
##tos 12919
##stin 12920
##shine 12921
zen 12922
##mu 12923
tina 12924
20℃ 12925
1893 12926
##たけて 12927
503 12928
465 12929
request 12930
##gence 12931
qt 12932
##っ 12933
1886 12934
347 12935
363 12936
q7 12937
##zzi 12938
diary 12939
##tore 12940
409 12941
##ead 12942
468 12943
cst 12944
##osa 12945
canada 12946
agent 12947
va 12948
##jiang 12949
##ちは 12950
##ーク 12951
##lam 12952
sg 12953
##nix 12954
##sday 12955
##よって 12956
g6 12957
##master 12958
bing 12959
##zl 12960
charlie 12961
１６ 12962
8mm 12963
nb40 12964
##ーン 12965
thai 12966
##ルフ 12967
ln284ct 12968
##itz 12969
##2f 12970
bonnie 12971
##food 12972
##lent 12973
originals 12974
##stro 12975
##lts 12976
418 12977
∟∣ 12978
##bscribe 12979
children 12980
ntd 12981
yesstyle 12982
##かも 12983
hmv 12984
##tment 12985
d5 12986
2cm 12987
arts 12988
sms 12989
##pn 12990
##я 12991
##いい 12992
topios9 12993
539 12994
lifestyle 12995
virtual 12996
##ague 12997
xz 12998
##deo 12999
muji 13000
024 13001
unt 13002
##nnis 13003
##ᅩ 13004
faq1 13005
1884 13006
396 13007
##ette 13008
fly 13009
64㎡ 13010
はしめまして 13011
441 13012
curry 13013
##pop 13014
のこ 13015
release 13016
##← 13017
##◆◆ 13018
##cast 13019
073 13020
ありな 13021
500ml 13022
##ews 13023
5c 13024
##stle 13025
ios7 13026
##ima 13027
787 13028
dog 13029
lenovo 13030
##r4 13031
roger 13032
013 13033
cbs 13034
vornado 13035
100m 13036
417 13037
##desk 13038
##クok 13039
##ald 13040
1867 13041
9595 13042
2900 13043
##van 13044
oil 13045
##ｘ 13046
some 13047
break 13048
common 13049
##jy 13050
##lines 13051
g7 13052
twice 13053
419 13054
ella 13055
nano 13056
belle 13057
にこ 13058
##mes 13059
##self 13060
##note 13061
jb 13062
##ことかてきます 13063
benz 13064
##との 13065
##ova 13066
451 13067
save 13068
##wing 13069
##ますのて 13070
kai 13071
りは 13072
##hua 13073
##rect 13074
rainer 13075
##unge 13076
448 13077
##0m 13078
adsl 13079
##かな 13080
guestname 13081
##uma 13082
##kins 13083
##zu 13084
tokichoi 13085
##price 13086
county 13087
##med 13088
##mus 13089
rmk 13090
391 13091
address 13092
vm 13093
えて 13094
openload 13095
##group 13096
##hin 13097
##iginal 13098
amg 13099
urban 13100
##oz 13101
jobs 13102
emi 13103
##public 13104
beautiful 13105
##sch 13106
album 13107
##dden 13108
##bell 13109
jerry 13110
works 13111
hostel 13112
miller 13113
##drive 13114
##rmin 13115
##１０ 13116
376 13117
boot 13118
828 13119
##370 13120
##fx 13121
##cm～ 13122
1885 13123
##nome 13124
##ctionary 13125
##oman 13126
##lish 13127
##cr 13128
##hm 13129
433 13130
##how 13131
432 13132
francis 13133
xi 13134
c919 13135
b5 13136
evernote 13137
##uc 13138
vga 13139
##3000 13140
coupe 13141
##urg 13142
##cca 13143
##uality 13144
019 13145
6g 13146
れる 13147
multi 13148
##また 13149
##ett 13150
em 13151
hey 13152
##ani 13153
##tax 13154
##rma 13155
inside 13156
than 13157
740 13158
leonnhurt 13159
##jin 13160
ict 13161
れた 13162
bird 13163
notes 13164
200mm 13165
くの 13166
##dical 13167
##lli 13168
result 13169
442 13170
iu 13171
ee 13172
438 13173
smap 13174
gopro 13175
##last 13176
yin 13177
pure 13178
998 13179
32g 13180
けた 13181
5kg 13182
##dan 13183
##rame 13184
mama 13185
##oot 13186
bean 13187
marketing 13188
##hur 13189
2l 13190
bella 13191
sync 13192
xuite 13193
##ground 13194
515 13195
discuz 13196
##getrelax 13197
##ince 13198
##bay 13199
##5s 13200
cj 13201
##イス 13202
gmat 13203
apt 13204
##pass 13205
jing 13206
##rix 13207
c4 13208
rich 13209
##とても 13210
niusnews 13211
##ello 13212
bag 13213
770 13214
##eting 13215
##mobile 13216
１８ 13217
culture 13218
015 13219
##のてすか 13220
377 13221
1020 13222
area 13223
##ience 13224
616 13225
details 13226
gp 13227
universal 13228
silver 13229
dit 13230
はお 13231
private 13232
ddd 13233
u11 13234
kanshu 13235
##ified 13236
fung 13237
##nny 13238
dx 13239
##520 13240
tai 13241
475 13242
023 13243
##fr 13244
##lean 13245
3s 13246
##pin 13247
429 13248
##rin 13249
25000 13250
ly 13251
rick 13252
##bility 13253
usb3 13254
banner 13255
##baru 13256
##gion 13257
metal 13258
dt 13259
vdf 13260
1871 13261
karl 13262
qualcomm 13263
bear 13264
1010 13265
oldid 13266
ian 13267
jo 13268
##tors 13269
population 13270
##ernel 13271
1882 13272
mmorpg 13273
##mv 13274
##bike 13275
603 13276
##© 13277
ww 13278
friend 13279
##ager 13280
exhibition 13281
##del 13282
##pods 13283
fpx 13284
structure 13285
##free 13286
##tings 13287
kl 13288
##rley 13289
##copyright 13290
##mma 13291
california 13292
3400 13293
orange 13294
yoga 13295
4l 13296
canmake 13297
honey 13298
##anda 13299
##コメント 13300
595 13301
nikkie 13302
##ルハイト 13303
dhl 13304
publishing 13305
##mall 13306
##gnet 13307
20cm 13308
513 13309
##クセス 13310
##┅ 13311
e88 13312
970 13313
##dog 13314
fishbase 13315
##! 13316
##" 13317
### 13318
##$ 13319
##% 13320
##& 13321
##' 13322
##( 13323
##) 13324
##* 13325
##+ 13326
##, 13327
##- 13328
##. 13329
##/ 13330
##: 13331
##; 13332
##< 13333
##= 13334
##> 13335
##? 13336
##@ 13337
##[ 13338
##\ 13339
##] 13340
##^ 13341
##_ 13342
##{ 13343
##| 13344
##} 13345
##~ 13346
##£ 13347
##¤ 13348
##¥ 13349
##§ 13350
##« 13351
##± 13352
##³ 13353
##µ 13354
##· 13355
##¹ 13356
##º 13357
##» 13358
##¼ 13359
##ß 13360
##æ 13361
##÷ 13362
##ø 13363
##đ 13364
##ŋ 13365
##ɔ 13366
##ə 13367
##ɡ 13368
##ʰ 13369
##ˇ 13370
##ˈ 13371
##ˊ 13372
##ˋ 13373
##ˍ 13374
##ː 13375
##˙ 13376
##˚ 13377
##ˢ 13378
##α 13379
##β 13380
##γ 13381
##δ 13382
##ε 13383
##η 13384
##θ 13385
##ι 13386
##κ 13387
##λ 13388
##μ 13389
##ν 13390
##ο 13391
##π 13392
##ρ 13393
##ς 13394
##σ 13395
##τ 13396
##υ 13397
##φ 13398
##χ 13399
##ψ 13400
##б 13401
##в 13402
##г 13403
##д 13404
##е 13405
##ж 13406
##з 13407
##к 13408
##л 13409
##м 13410
##н 13411
##о 13412
##п 13413
##р 13414
##с 13415
##т 13416
##у 13417
##ф 13418
##х 13419
##ц 13420
##ч 13421
##ш 13422
##ы 13423
##ь 13424
##і 13425
##ا 13426
##ب 13427
##ة 13428
##ت 13429
##د 13430
##ر 13431
##س 13432
##ع 13433
##ل 13434
##م 13435
##ن 13436
##ه 13437
##و 13438
##ي 13439
##۩ 13440
##ก 13441
##ง 13442
##น 13443
##ม 13444
##ย 13445
##ร 13446
##อ 13447
##า 13448
##เ 13449
##๑ 13450
##་ 13451
##ღ 13452
##ᄀ 13453
##ᄁ 13454
##ᄂ 13455
##ᄃ 13456
##ᄅ 13457
##ᄆ 13458
##ᄇ 13459
##ᄈ 13460
##ᄉ 13461
##ᄋ 13462
##ᄌ 13463
##ᄎ 13464
##ᄏ 13465
##ᄐ 13466
##ᄑ 13467
##ᄒ 13468
##ᅢ 13469
##ᅣ 13470
##ᅥ 13471
##ᅦ 13472
##ᅧ 13473
##ᅨ 13474
##ᅪ 13475
##ᅬ 13476
##ᅭ 13477
##ᅮ 13478
##ᅯ 13479
##ᅲ 13480
##ᅳ 13481
##ᅴ 13482
##ᆷ 13483
##ᆸ 13484
##ᆺ 13485
##ᆻ 13486
##ᗜ 13487
##ᵃ 13488
##ᵉ 13489
##ᵍ 13490
##ᵏ 13491
##ᵐ 13492
##ᵒ 13493
##ᵘ 13494
##‖ 13495
##„ 13496
##† 13497
##• 13498
##‥ 13499
##‧ 13500
## 13501
##‰ 13502
##′ 13503
##″ 13504
##‹ 13505
##› 13506
##※ 13507
##‿ 13508
##⁄ 13509
##ⁱ 13510
##⁺ 13511
##ⁿ 13512
##₁ 13513
##₃ 13514
##₄ 13515
##€ 13516
##№ 13517
##ⅰ 13518
##ⅱ 13519
##ⅲ 13520
##ⅳ 13521
##ⅴ 13522
##↔ 13523
##↗ 13524
##↘ 13525
##⇒ 13526
##∀ 13527
##− 13528
##∕ 13529
##∙ 13530
##√ 13531
##∞ 13532
##∟ 13533
##∠ 13534
##∣ 13535
##∩ 13536
##∮ 13537
##∶ 13538
##∼ 13539
##∽ 13540
##≈ 13541
##≒ 13542
##≡ 13543
##≤ 13544
##≥ 13545
##≦ 13546
##≧ 13547
##≪ 13548
##≫ 13549
##⊙ 13550
##⋅ 13551
##⋈ 13552
##⋯ 13553
##⌒ 13554
##① 13555
##② 13556
##③ 13557
##④ 13558
##⑤ 13559
##⑥ 13560
##⑦ 13561
##⑧ 13562
##⑨ 13563
##⑩ 13564
##⑴ 13565
##⑵ 13566
##⑶ 13567
##⑷ 13568
##⑸ 13569
##⒈ 13570
##⒉ 13571
##⒊ 13572
##⒋ 13573
##ⓒ 13574
##ⓔ 13575
##ⓘ 13576
##━ 13577
##┃ 13578
##┆ 13579
##┊ 13580
##┌ 13581
##└ 13582
##├ 13583
##┣ 13584
##═ 13585
##║ 13586
##╚ 13587
##╞ 13588
##╠ 13589
##╭ 13590
##╮ 13591
##╯ 13592
##╰ 13593
##╱ 13594
##╳ 13595
##▂ 13596
##▃ 13597
##▅ 13598
##▇ 13599
##▉ 13600
##▋ 13601
##▌ 13602
##▍ 13603
##▎ 13604
##□ 13605
##▪ 13606
##▫ 13607
##▬ 13608
##△ 13609
##▶ 13610
##► 13611
##▽ 13612
##◇ 13613
##◕ 13614
##◠ 13615
##◢ 13616
##◤ 13617
##☀ 13618
##☕ 13619
##☞ 13620
##☺ 13621
##☼ 13622
##♀ 13623
##♂ 13624
##♠ 13625
##♡ 13626
##♣ 13627
##♦ 13628
##♫ 13629
##♬ 13630
##✈ 13631
##✔ 13632
##✕ 13633
##✖ 13634
##✦ 13635
##✨ 13636
##✪ 13637
##✰ 13638
##✿ 13639
##❀ 13640
##➜ 13641
##➤ 13642
##⦿ 13643
##、 13644
##。 13645
##〃 13646
##々 13647
##〇 13648
##〈 13649
##〉 13650
##《 13651
##》 13652
##「 13653
##」 13654
##『 13655
##』 13656
##【 13657
##】 13658
##〓 13659
##〔 13660
##〕 13661
##〖 13662
##〗 13663
##〜 13664
##〝 13665
##〞 13666
##ぃ 13667
##ぇ 13668
##ぬ 13669
##ふ 13670
##ほ 13671
##む 13672
##ゃ 13673
##ゅ 13674
##ゆ 13675
##ょ 13676
##゜ 13677
##ゝ 13678
##ァ 13679
##ゥ 13680
##エ 13681
##ォ 13682
##ケ 13683
##サ 13684
##セ 13685
##ソ 13686
##ッ 13687
##ニ 13688
##ヌ 13689
##ネ 13690
##ノ 13691
##ヘ 13692
##モ 13693
##ャ 13694
##ヤ 13695
##ュ 13696
##ユ 13697
##ョ 13698
##ヨ 13699
##ワ 13700
##ヲ 13701
##・ 13702
##ヽ 13703
##ㄅ 13704
##ㄆ 13705
##ㄇ 13706
##ㄉ 13707
##ㄋ 13708
##ㄌ 13709
##ㄍ 13710
##ㄎ 13711
##ㄏ 13712
##ㄒ 13713
##ㄚ 13714
##ㄛ 13715
##ㄞ 13716
##ㄟ 13717
##ㄢ 13718
##ㄤ 13719
##ㄥ 13720
##ㄧ 13721
##ㄨ 13722
##ㆍ 13723
##㈦ 13724
##㊣ 13725
##㗎 13726
##一 13727
##丁 13728
##七 13729
##万 13730
##丈 13731
##三 13732
##上 13733
##下 13734
##不 13735
##与 13736
##丐 13737
##丑 13738
##专 13739
##且 13740
##丕 13741
##世 13742
##丘 13743
##丙 13744
##业 13745
##丛 13746
##东 13747
##丝 13748
##丞 13749
##丟 13750
##両 13751
##丢 13752
##两 13753
##严 13754
##並 13755
##丧 13756
##丨 13757
##个 13758
##丫 13759
##中 13760
##丰 13761
##串 13762
##临 13763
##丶 13764
##丸 13765
##丹 13766
##为 13767
##主 13768
##丼 13769
##丽 13770
##举 13771
##丿 13772
##乂 13773
##乃 13774
##久 13775
##么 13776
##义 13777
##之 13778
##乌 13779
##乍 13780
##乎 13781
##乏 13782
##乐 13783
##乒 13784
##乓 13785
##乔 13786
##乖 13787
##乗 13788
##乘 13789
##乙 13790
##乜 13791
##九 13792
##乞 13793
##也 13794
##习 13795
##乡 13796
##书 13797
##乩 13798
##买 13799
##乱 13800
##乳 13801
##乾 13802
##亀 13803
##亂 13804
##了 13805
##予 13806
##争 13807
##事 13808
##二 13809
##于 13810
##亏 13811
##云 13812
##互 13813
##五 13814
##井 13815
##亘 13816
##亙 13817
##亚 13818
##些 13819
##亜 13820
##亞 13821
##亟 13822
##亡 13823
##亢 13824
##交 13825
##亥 13826
##亦 13827
##产 13828
##亨 13829
##亩 13830
##享 13831
##京 13832
##亭 13833
##亮 13834
##亲 13835
##亳 13836
##亵 13837
##人 13838
##亿 13839
##什 13840
##仁 13841
##仃 13842
##仄 13843
##仅 13844
##仆 13845
##仇 13846
##今 13847
##介 13848
##仍 13849
##从 13850
##仏 13851
##仑 13852
##仓 13853
##仔 13854
##仕 13855
##他 13856
##仗 13857
##付 13858
##仙 13859
##仝 13860
##仞 13861
##仟 13862
##代 13863
##令 13864
##以 13865
##仨 13866
##仪 13867
##们 13868
##仮 13869
##仰 13870
##仲 13871
##件 13872
##价 13873
##任 13874
##份 13875
##仿 13876
##企 13877
##伉 13878
##伊 13879
##伍 13880
##伎 13881
##伏 13882
##伐 13883
##休 13884
##伕 13885
##众 13886
##优 13887
##伙 13888
##会 13889
##伝 13890
##伞 13891
##伟 13892
##传 13893
##伢 13894
##伤 13895
##伦 13896
##伪 13897
##伫 13898
##伯 13899
##估 13900
##伴 13901
##伶 13902
##伸 13903
##伺 13904
##似 13905
##伽 13906
##佃 13907
##但 13908
##佇 13909
##佈 13910
##位 13911
##低 13912
##住 13913
##佐 13914
##佑 13915
##体 13916
##佔 13917
##何 13918
##佗 13919
##佘 13920
##余 13921
##佚 13922
##佛 13923
##作 13924
##佝 13925
##佞 13926
##佟 13927
##你 13928
##佢 13929
##佣 13930
##佤 13931
##佥 13932
##佩 13933
##佬 13934
##佯 13935
##佰 13936
##佳 13937
##併 13938
##佶 13939
##佻 13940
##佼 13941
##使 13942
##侃 13943
##侄 13944
##來 13945
##侈 13946
##例 13947
##侍 13948
##侏 13949
##侑 13950
##侖 13951
##侗 13952
##供 13953
##依 13954
##侠 13955
##価 13956
##侣 13957
##侥 13958
##侦 13959
##侧 13960
##侨 13961
##侬 13962
##侮 13963
##侯 13964
##侵 13965
##侶 13966
##侷 13967
##便 13968
##係 13969
##促 13970
##俄 13971
##俊 13972
##俎 13973
##俏 13974
##俐 13975
##俑 13976
##俗 13977
##俘 13978
##俚 13979
##保 13980
##俞 13981
##俟 13982
##俠 13983
##信 13984
##俨 13985
##俩 13986
##俪 13987
##俬 13988
##俭 13989
##修 13990
##俯 13991
##俱 13992
##俳 13993
##俸 13994
##俺 13995
##俾 13996
##倆 13997
##倉 13998
##個 13999
##倌 14000
##倍 14001
##倏 14002
##們 14003
##倒 14004
##倔 14005
##倖 14006
##倘 14007
##候 14008
##倚 14009
##倜 14010
##借 14011
##倡 14012
##値 14013
##倦 14014
##倩 14015
##倪 14016
##倫 14017
##倬 14018
##倭 14019
##倶 14020
##债 14021
##值 14022
##倾 14023
##偃 14024
##假 14025
##偈 14026
##偉 14027
##偌 14028
##偎 14029
##偏 14030
##偕 14031
##做 14032
##停 14033
##健 14034
##側 14035
##偵 14036
##偶 14037
##偷 14038
##偻 14039
##偽 14040
##偿 14041
##傀 14042
##傅 14043
##傍 14044
##傑 14045
##傘 14046
##備 14047
##傚 14048
##傢 14049
##傣 14050
##傥 14051
##储 14052
##傩 14053
##催 14054
##傭 14055
##傲 14056
##傳 14057
##債 14058
##傷 14059
##傻 14060
##傾 14061
##僅 14062
##働 14063
##像 14064
##僑 14065
##僕 14066
##僖 14067
##僚 14068
##僥 14069
##僧 14070
##僭 14071
##僮 14072
##僱 14073
##僵 14074
##價 14075
##僻 14076
##儀 14077
##儂 14078
##億 14079
##儆 14080
##儉 14081
##儋 14082
##儒 14083
##儕 14084
##儘 14085
##償 14086
##儡 14087
##優 14088
##儲 14089
##儷 14090
##儼 14091
##儿 14092
##兀 14093
##允 14094
##元 14095
##兄 14096
##充 14097
##兆 14098
##兇 14099
##先 14100
##光 14101
##克 14102
##兌 14103
##免 14104
##児 14105
##兑 14106
##兒 14107
##兔 14108
##兖 14109
##党 14110
##兜 14111
##兢 14112
##入 14113
##內 14114
##全 14115
##兩 14116
##八 14117
##公 14118
##六 14119
##兮 14120
##兰 14121
##共 14122
##兲 14123
##关 14124
##兴 14125
##兵 14126
##其 14127
##具 14128
##典 14129
##兹 14130
##养 14131
##兼 14132
##兽 14133
##冀 14134
##内 14135
##円 14136
##冇 14137
##冈 14138
##冉 14139
##冊 14140
##册 14141
##再 14142
##冏 14143
##冒 14144
##冕 14145
##冗 14146
##写 14147
##军 14148
##农 14149
##冠 14150
##冢 14151
##冤 14152
##冥 14153
##冨 14154
##冪 14155
##冬 14156
##冯 14157
##冰 14158
##冲 14159
##决 14160
##况 14161
##冶 14162
##冷 14163
##冻 14164
##冼 14165
##冽 14166
##冾 14167
##净 14168
##凄 14169
##准 14170
##凇 14171
##凈 14172
##凉 14173
##凋 14174
##凌 14175
##凍 14176
##减 14177
##凑 14178
##凛 14179
##凜 14180
##凝 14181
##几 14182
##凡 14183
##凤 14184
##処 14185
##凪 14186
##凭 14187
##凯 14188
##凰 14189
##凱 14190
##凳 14191
##凶 14192
##凸 14193
##凹 14194
##出 14195
##击 14196
##函 14197
##凿 14198
##刀 14199
##刁 14200
##刃 14201
##分 14202
##切 14203
##刈 14204
##刊 14205
##刍 14206
##刎 14207
##刑 14208
##划 14209
##列 14210
##刘 14211
##则 14212
##刚 14213
##创 14214
##初 14215
##删 14216
##判 14217
##別 14218
##刨 14219
##利 14220
##刪 14221
##别 14222
##刮 14223
##到 14224
##制 14225
##刷 14226
##券 14227
##刹 14228
##刺 14229
##刻 14230
##刽 14231
##剁 14232
##剂 14233
##剃 14234
##則 14235
##剉 14236
##削 14237
##剋 14238
##剌 14239
##前 14240
##剎 14241
##剐 14242
##剑 14243
##剔 14244
##剖 14245
##剛 14246
##剜 14247
##剝 14248
##剣 14249
##剤 14250
##剥 14251
##剧 14252
##剩 14253
##剪 14254
##副 14255
##割 14256
##創 14257
##剷 14258
##剽 14259
##剿 14260
##劃 14261
##劇 14262
##劈 14263
##劉 14264
##劊 14265
##劍 14266
##劏 14267
##劑 14268
##力 14269
##劝 14270
##办 14271
##功 14272
##加 14273
##务 14274
##劣 14275
##动 14276
##助 14277
##努 14278
##劫 14279
##劭 14280
##励 14281
##劲 14282
##劳 14283
##労 14284
##劵 14285
##効 14286
##劾 14287
##势 14288
##勁 14289
##勃 14290
##勇 14291
##勉 14292
##勋 14293
##勐 14294
##勒 14295
##動 14296
##勖 14297
##勘 14298
##務 14299
##勛 14300
##勝 14301
##勞 14302
##募 14303
##勢 14304
##勤 14305
##勧 14306
##勳 14307
##勵 14308
##勸 14309
##勺 14310
##勻 14311
##勾 14312
##勿 14313
##匀 14314
##包 14315
##匆 14316
##匈 14317
##匍 14318
##匐 14319
##匕 14320
##化 14321
##北 14322
##匙 14323
##匝 14324
##匠 14325
##匡 14326
##匣 14327
##匪 14328
##匮 14329
##匯 14330
##匱 14331
##匹 14332
##区 14333
##医 14334
##匾 14335
##匿 14336
##區 14337
##十 14338
##千 14339
##卅 14340
##升 14341
##午 14342
##卉 14343
##半 14344
##卍 14345
##华 14346
##协 14347
##卑 14348
##卒 14349
##卓 14350
##協 14351
##单 14352
##卖 14353
##南 14354
##単 14355
##博 14356
##卜 14357
##卞 14358
##卟 14359
##占 14360
##卡 14361
##卢 14362
##卤 14363
##卦 14364
##卧 14365
##卫 14366
##卮 14367
##卯 14368
##印 14369
##危 14370
##即 14371
##却 14372
##卵 14373
##卷 14374
##卸 14375
##卻 14376
##卿 14377
##厂 14378
##厄 14379
##厅 14380
##历 14381
##厉 14382
##压 14383
##厌 14384
##厕 14385
##厘 14386
##厚 14387
##厝 14388
##原 14389
##厢 14390
##厥 14391
##厦 14392
##厨 14393
##厩 14394
##厭 14395
##厮 14396
##厲 14397
##厳 14398
##去 14399
##县 14400
##叁 14401
##参 14402
##參 14403
##又 14404
##叉 14405
##及 14406
##友 14407
##双 14408
##反 14409
##収 14410
##发 14411
##叔 14412
##取 14413
##受 14414
##变 14415
##叙 14416
##叛 14417
##叟 14418
##叠 14419
##叡 14420
##叢 14421
##口 14422
##古 14423
##句 14424
##另 14425
##叨 14426
##叩 14427
##只 14428
##叫 14429
##召 14430
##叭 14431
##叮 14432
##可 14433
##台 14434
##叱 14435
##史 14436
##右 14437
##叵 14438
##叶 14439
##号 14440
##司 14441
##叹 14442
##叻 14443
##叼 14444
##叽 14445
##吁 14446
##吃 14447
##各 14448
##吆 14449
##合 14450
##吉 14451
##吊 14452
##吋 14453
##同 14454
##名 14455
##后 14456
##吏 14457
##吐 14458
##向 14459
##吒 14460
##吓 14461
##吕 14462
##吖 14463
##吗 14464
##君 14465
##吝 14466
##吞 14467
##吟 14468
##吠 14469
##吡 14470
##否 14471
##吧 14472
##吨 14473
##吩 14474
##含 14475
##听 14476
##吭 14477
##吮 14478
##启 14479
##吱 14480
##吳 14481
##吴 14482
##吵 14483
##吶 14484
##吸 14485
##吹 14486
##吻 14487
##吼 14488
##吽 14489
##吾 14490
##呀 14491
##呂 14492
##呃 14493
##呆 14494
##呈 14495
##告 14496
##呋 14497
##呎 14498
##呐 14499
##呓 14500
##呕 14501
##呗 14502
##员 14503
##呛 14504
##呜 14505
##呢 14506
##呤 14507
##呦 14508
##周 14509
##呱 14510
##呲 14511
##味 14512
##呵 14513
##呷 14514
##呸 14515
##呻 14516
##呼 14517
##命 14518
##咀 14519
##咁 14520
##咂 14521
##咄 14522
##咆 14523
##咋 14524
##和 14525
##咎 14526
##咏 14527
##咐 14528
##咒 14529
##咔 14530
##咕 14531
##咖 14532
##咗 14533
##咘 14534
##咙 14535
##咚 14536
##咛 14537
##咣 14538
##咤 14539
##咦 14540
##咧 14541
##咨 14542
##咩 14543
##咪 14544
##咫 14545
##咬 14546
##咭 14547
##咯 14548
##咱 14549
##咲 14550
##咳 14551
##咸 14552
##咻 14553
##咽 14554
##咿 14555
##哀 14556
##品 14557
##哂 14558
##哄 14559
##哆 14560
##哇 14561
##哈 14562
##哉 14563
##哋 14564
##哌 14565
##响 14566
##哎 14567
##哏 14568
##哐 14569
##哑 14570
##哒 14571
##哔 14572
##哗 14573
##哟 14574
##員 14575
##哥 14576
##哦 14577
##哧 14578
##哨 14579
##哩 14580
##哪 14581
##哭 14582
##哮 14583
##哲 14584
##哺 14585
##哼 14586
##哽 14587
##唁 14588
##唄 14589
##唆 14590
##唇 14591
##唉 14592
##唏 14593
##唐 14594
##唑 14595
##唔 14596
##唠 14597
##唤 14598
##唧 14599
##唬 14600
##售 14601
##唯 14602
##唰 14603
##唱 14604
##唳 14605
##唷 14606
##唸 14607
##唾 14608
##啃 14609
##啄 14610
##商 14611
##啉 14612
##啊 14613
##問 14614
##啓 14615
##啕 14616
##啖 14617
##啜 14618
##啞 14619
##啟 14620
##啡 14621
##啤 14622
##啥 14623
##啦 14624
##啧 14625
##啪 14626
##啫 14627
##啬 14628
##啮 14629
##啰 14630
##啱 14631
##啲 14632
##啵 14633
##啶 14634
##啷 14635
##啸 14636
##啻 14637
##啼 14638
##啾 14639
##喀 14640
##喂 14641
##喃 14642
##善 14643
##喆 14644
##喇 14645
##喉 14646
##喊 14647
##喋 14648
##喎 14649
##喏 14650
##喔 14651
##喘 14652
##喙 14653
##喚 14654
##喜 14655
##喝 14656
##喟 14657
##喧 14658
##喪 14659
##喫 14660
##喬 14661
##單 14662
##喰 14663
##喱 14664
##喲 14665
##喳 14666
##喵 14667
##営 14668
##喷 14669
##喹 14670
##喺 14671
##喻 14672
##喽 14673
##嗅 14674
##嗆 14675
##嗇 14676
##嗎 14677
##嗑 14678
##嗒 14679
##嗓 14680
##嗔 14681
##嗖 14682
##嗚 14683
##嗜 14684
##嗝 14685
##嗟 14686
##嗡 14687
##嗣 14688
##嗤 14689
##嗦 14690
##嗨 14691
##嗪 14692
##嗬 14693
##嗯 14694
##嗰 14695
##嗲 14696
##嗳 14697
##嗶 14698
##嗷 14699
##嗽 14700
##嘀 14701
##嘅 14702
##嘆 14703
##嘈 14704
##嘉 14705
##嘌 14706
##嘍 14707
##嘎 14708
##嘔 14709
##嘖 14710
##嘗 14711
##嘘 14712
##嘚 14713
##嘛 14714
##嘜 14715
##嘞 14716
##嘟 14717
##嘢 14718
##嘣 14719
##嘤 14720
##嘧 14721
##嘩 14722
##嘭 14723
##嘮 14724
##嘯 14725
##嘰 14726
##嘱 14727
##嘲 14728
##嘴 14729
##嘶 14730
##嘸 14731
##嘹 14732
##嘻 14733
##嘿 14734
##噁 14735
##噌 14736
##噎 14737
##噓 14738
##噔 14739
##噗 14740
##噙 14741
##噜 14742
##噠 14743
##噢 14744
##噤 14745
##器 14746
##噩 14747
##噪 14748
##噬 14749
##噱 14750
##噴 14751
##噶 14752
##噸 14753
##噹 14754
##噻 14755
##噼 14756
##嚀 14757
##嚇 14758
##嚎 14759
##嚏 14760
##嚐 14761
##嚓 14762
##嚕 14763
##嚟 14764
##嚣 14765
##嚥 14766
##嚨 14767
##嚮 14768
##嚴 14769
##嚷 14770
##嚼 14771
##囂 14772
##囉 14773
##囊 14774
##囍 14775
##囑 14776
##囔 14777
##囗 14778
##囚 14779
##四 14780
##囝 14781
##回 14782
##囟 14783
##因 14784
##囡 14785
##团 14786
##団 14787
##囤 14788
##囧 14789
##囪 14790
##囫 14791
##园 14792
##困 14793
##囱 14794
##囲 14795
##図 14796
##围 14797
##囹 14798
##固 14799
##国 14800
##图 14801
##囿 14802
##圃 14803
##圄 14804
##圆 14805
##圈 14806
##國 14807
##圍 14808
##圏 14809
##園 14810
##圓 14811
##圖 14812
##團 14813
##圜 14814
##土 14815
##圣 14816
##圧 14817
##在 14818
##圩 14819
##圭 14820
##地 14821
##圳 14822
##场 14823
##圻 14824
##圾 14825
##址 14826
##坂 14827
##均 14828
##坊 14829
##坍 14830
##坎 14831
##坏 14832
##坐 14833
##坑 14834
##块 14835
##坚 14836
##坛 14837
##坝 14838
##坞 14839
##坟 14840
##坠 14841
##坡 14842
##坤 14843
##坦 14844
##坨 14845
##坪 14846
##坯 14847
##坳 14848
##坵 14849
##坷 14850
##垂 14851
##垃 14852
##垄 14853
##型 14854
##垒 14855
##垚 14856
##垛 14857
##垠 14858
##垢 14859
##垣 14860
##垦 14861
##垩 14862
##垫 14863
##垭 14864
##垮 14865
##垵 14866
##埂 14867
##埃 14868
##埋 14869
##城 14870
##埔 14871
##埕 14872
##埗 14873
##域 14874
##埠 14875
##埤 14876
##埵 14877
##執 14878
##埸 14879
##培 14880
##基 14881
##埼 14882
##堀 14883
##堂 14884
##堃 14885
##堅 14886
##堆 14887
##堇 14888
##堑 14889
##堕 14890
##堙 14891
##堡 14892
##堤 14893
##堪 14894
##堯 14895
##堰 14896
##報 14897
##場 14898
##堵 14899
##堺 14900
##堿 14901
##塊 14902
##塌 14903
##塑 14904
##塔 14905
##塗 14906
##塘 14907
##塚 14908
##塞 14909
##塢 14910
##塩 14911
##填 14912
##塬 14913
##塭 14914
##塵 14915
##塾 14916
##墀 14917
##境 14918
##墅 14919
##墉 14920
##墊 14921
##墒 14922
##墓 14923
##増 14924
##墘 14925
##墙 14926
##墜 14927
##增 14928
##墟 14929
##墨 14930
##墩 14931
##墮 14932
##墳 14933
##墻 14934
##墾 14935
##壁 14936
##壅 14937
##壆 14938
##壇 14939
##壊 14940
##壑 14941
##壓 14942
##壕 14943
##壘 14944
##壞 14945
##壟 14946
##壢 14947
##壤 14948
##壩 14949
##士 14950
##壬 14951
##壮 14952
##壯 14953
##声 14954
##売 14955
##壳 14956
##壶 14957
##壹 14958
##壺 14959
##壽 14960
##处 14961
##备 14962
##変 14963
##复 14964
##夏 14965
##夔 14966
##夕 14967
##外 14968
##夙 14969
##多 14970
##夜 14971
##够 14972
##夠 14973
##夢 14974
##夥 14975
##大 14976
##天 14977
##太 14978
##夫 14979
##夭 14980
##央 14981
##夯 14982
##失 14983
##头 14984
##夷 14985
##夸 14986
##夹 14987
##夺 14988
##夾 14989
##奂 14990
##奄 14991
##奇 14992
##奈 14993
##奉 14994
##奋 14995
##奎 14996
##奏 14997
##奐 14998
##契 14999
##奔 15000
##奕 15001
##奖 15002
##套 15003
##奘 15004
##奚 15005
##奠 15006
##奢 15007
##奥 15008
##奧 15009
##奪 15010
##奬 15011
##奮 15012
##女 15013
##奴 15014
##奶 15015
##奸 15016
##她 15017
##好 15018
##如 15019
##妃 15020
##妄 15021
##妆 15022
##妇 15023
##妈 15024
##妊 15025
##妍 15026
##妒 15027
##妓 15028
##妖 15029
##妘 15030
##妙 15031
##妝 15032
##妞 15033
##妣 15034
##妤 15035
##妥 15036
##妨 15037
##妩 15038
##妪 15039
##妮 15040
##妲 15041
##妳 15042
##妹 15043
##妻 15044
##妾 15045
##姆 15046
##姉 15047
##姊 15048
##始 15049
##姍 15050
##姐 15051
##姑 15052
##姒 15053
##姓 15054
##委 15055
##姗 15056
##姚 15057
##姜 15058
##姝 15059
##姣 15060
##姥 15061
##姦 15062
##姨 15063
##姪 15064
##姫 15065
##姬 15066
##姹 15067
##姻 15068
##姿 15069
##威 15070
##娃 15071
##娄 15072
##娅 15073
##娆 15074
##娇 15075
##娉 15076
##娑 15077
##娓 15078
##娘 15079
##娛 15080
##娜 15081
##娟 15082
##娠 15083
##娣 15084
##娥 15085
##娩 15086
##娱 15087
##娲 15088
##娴 15089
##娶 15090
##娼 15091
##婀 15092
##婁 15093
##婆 15094
##婉 15095
##婊 15096
##婕 15097
##婚 15098
##婢 15099
##婦 15100
##婧 15101
##婪 15102
##婭 15103
##婴 15104
##婵 15105
##婶 15106
##婷 15107
##婺 15108
##婿 15109
##媒 15110
##媚 15111
##媛 15112
##媞 15113
##媧 15114
##媲 15115
##媳 15116
##媽 15117
##媾 15118
##嫁 15119
##嫂 15120
##嫉 15121
##嫌 15122
##嫑 15123
##嫔 15124
##嫖 15125
##嫘 15126
##嫚 15127
##嫡 15128
##嫣 15129
##嫦 15130
##嫩 15131
##嫲 15132
##嫵 15133
##嫻 15134
##嬅 15135
##嬉 15136
##嬌 15137
##嬗 15138
##嬛 15139
##嬢 15140
##嬤 15141
##嬪 15142
##嬰 15143
##嬴 15144
##嬷 15145
##嬸 15146
##嬿 15147
##孀 15148
##孃 15149
##子 15150
##孑 15151
##孔 15152
##孕 15153
##孖 15154
##字 15155
##存 15156
##孙 15157
##孚 15158
##孛 15159
##孜 15160
##孝 15161
##孟 15162
##孢 15163
##季 15164
##孤 15165
##学 15166
##孩 15167
##孪 15168
##孫 15169
##孬 15170
##孰 15171
##孱 15172
##孳 15173
##孵 15174
##學 15175
##孺 15176
##孽 15177
##孿 15178
##宁 15179
##它 15180
##宅 15181
##宇 15182
##守 15183
##安 15184
##宋 15185
##完 15186
##宏 15187
##宓 15188
##宕 15189
##宗 15190
##官 15191
##宙 15192
##定 15193
##宛 15194
##宜 15195
##宝 15196
##实 15197
##実 15198
##宠 15199
##审 15200
##客 15201
##宣 15202
##室 15203
##宥 15204
##宦 15205
##宪 15206
##宫 15207
##宮 15208
##宰 15209
##害 15210
##宴 15211
##宵 15212
##家 15213
##宸 15214
##容 15215
##宽 15216
##宾 15217
##宿 15218
##寂 15219
##寄 15220
##寅 15221
##密 15222
##寇 15223
##富 15224
##寐 15225
##寒 15226
##寓 15227
##寛 15228
##寝 15229
##寞 15230
##察 15231
##寡 15232
##寢 15233
##寥 15234
##實 15235
##寧 15236
##寨 15237
##審 15238
##寫 15239
##寬 15240
##寮 15241
##寰 15242
##寵 15243
##寶 15244
##寸 15245
##对 15246
##寺 15247
##寻 15248
##导 15249
##対 15250
##寿 15251
##封 15252
##専 15253
##射 15254
##将 15255
##將 15256
##專 15257
##尉 15258
##尊 15259
##尋 15260
##對 15261
##導 15262
##小 15263
##少 15264
##尔 15265
##尕 15266
##尖 15267
##尘 15268
##尚 15269
##尝 15270
##尤 15271
##尧 15272
##尬 15273
##就 15274
##尴 15275
##尷 15276
##尸 15277
##尹 15278
##尺 15279
##尻 15280
##尼 15281
##尽 15282
##尾 15283
##尿 15284
##局 15285
##屁 15286
##层 15287
##屄 15288
##居 15289
##屆 15290
##屈 15291
##屉 15292
##届 15293
##屋 15294
##屌 15295
##屍 15296
##屎 15297
##屏 15298
##屐 15299
##屑 15300
##展 15301
##屜 15302
##属 15303
##屠 15304
##屡 15305
##屢 15306
##層 15307
##履 15308
##屬 15309
##屯 15310
##山 15311
##屹 15312
##屿 15313
##岀 15314
##岁 15315
##岂 15316
##岌 15317
##岐 15318
##岑 15319
##岔 15320
##岖 15321
##岗 15322
##岘 15323
##岙 15324
##岚 15325
##岛 15326
##岡 15327
##岩 15328
##岫 15329
##岬 15330
##岭 15331
##岱 15332
##岳 15333
##岷 15334
##岸 15335
##峇 15336
##峋 15337
##峒 15338
##峙 15339
##峡 15340
##峤 15341
##峥 15342
##峦 15343
##峨 15344
##峪 15345
##峭 15346
##峯 15347
##峰 15348
##峴 15349
##島 15350
##峻 15351
##峽 15352
##崁 15353
##崂 15354
##崆 15355
##崇 15356
##崎 15357
##崑 15358
##崔 15359
##崖 15360
##崗 15361
##崙 15362
##崛 15363
##崧 15364
##崩 15365
##崭 15366
##崴 15367
##崽 15368
##嵇 15369
##嵊 15370
##嵋 15371
##嵌 15372
##嵐 15373
##嵘 15374
##嵩 15375
##嵬 15376
##嵯 15377
##嶂 15378
##嶄 15379
##嶇 15380
##嶋 15381
##嶙 15382
##嶺 15383
##嶼 15384
##嶽 15385
##巅 15386
##巍 15387
##巒 15388
##巔 15389
##巖 15390
##川 15391
##州 15392
##巡 15393
##巢 15394
##工 15395
##左 15396
##巧 15397
##巨 15398
##巩 15399
##巫 15400
##差 15401
##己 15402
##已 15403
##巳 15404
##巴 15405
##巷 15406
##巻 15407
##巽 15408
##巾 15409
##巿 15410
##币 15411
##市 15412
##布 15413
##帅 15414
##帆 15415
##师 15416
##希 15417
##帐 15418
##帑 15419
##帕 15420
##帖 15421
##帘 15422
##帚 15423
##帛 15424
##帜 15425
##帝 15426
##帥 15427
##带 15428
##帧 15429
##師 15430
##席 15431
##帮 15432
##帯 15433
##帰 15434
##帳 15435
##帶 15436
##帷 15437
##常 15438
##帼 15439
##帽 15440
##幀 15441
##幂 15442
##幄 15443
##幅 15444
##幌 15445
##幔 15446
##幕 15447
##幟 15448
##幡 15449
##幢 15450
##幣 15451
##幫 15452
##干 15453
##平 15454
##年 15455
##并 15456
##幸 15457
##幹 15458
##幺 15459
##幻 15460
##幼 15461
##幽 15462
##幾 15463
##广 15464
##庁 15465
##広 15466
##庄 15467
##庆 15468
##庇 15469
##床 15470
##序 15471
##庐 15472
##库 15473
##应 15474
##底 15475
##庖 15476
##店 15477
##庙 15478
##庚 15479
##府 15480
##庞 15481
##废 15482
##庠 15483
##度 15484
##座 15485
##庫 15486
##庭 15487
##庵 15488
##庶 15489
##康 15490
##庸 15491
##庹 15492
##庾 15493
##廁 15494
##廂 15495
##廃 15496
##廈 15497
##廉 15498
##廊 15499
##廓 15500
##廖 15501
##廚 15502
##廝 15503
##廟 15504
##廠 15505
##廢 15506
##廣 15507
##廬 15508
##廳 15509
##延 15510
##廷 15511
##建 15512
##廿 15513
##开 15514
##弁 15515
##异 15516
##弃 15517
##弄 15518
##弈 15519
##弊 15520
##弋 15521
##式 15522
##弑 15523
##弒 15524
##弓 15525
##弔 15526
##引 15527
##弗 15528
##弘 15529
##弛 15530
##弟 15531
##张 15532
##弥 15533
##弦 15534
##弧 15535
##弩 15536
##弭 15537
##弯 15538
##弱 15539
##張 15540
##強 15541
##弹 15542
##强 15543
##弼 15544
##弾 15545
##彅 15546
##彆 15547
##彈 15548
##彌 15549
##彎 15550
##归 15551
##当 15552
##录 15553
##彗 15554
##彙 15555
##彝 15556
##形 15557
##彤 15558
##彥 15559
##彦 15560
##彧 15561
##彩 15562
##彪 15563
##彫 15564
##彬 15565
##彭 15566
##彰 15567
##影 15568
##彷 15569
##役 15570
##彻 15571
##彼 15572
##彿 15573
##往 15574
##征 15575
##径 15576
##待 15577
##徇 15578
##很 15579
##徉 15580
##徊 15581
##律 15582
##後 15583
##徐 15584
##徑 15585
##徒 15586
##従 15587
##徕 15588
##得 15589
##徘 15590
##徙 15591
##徜 15592
##從 15593
##徠 15594
##御 15595
##徨 15596
##復 15597
##循 15598
##徬 15599
##微 15600
##徳 15601
##徴 15602
##徵 15603
##德 15604
##徹 15605
##徼 15606
##徽 15607
##心 15608
##必 15609
##忆 15610
##忌 15611
##忍 15612
##忏 15613
##忐 15614
##忑 15615
##忒 15616
##忖 15617
##志 15618
##忘 15619
##忙 15620
##応 15621
##忠 15622
##忡 15623
##忤 15624
##忧 15625
##忪 15626
##快 15627
##忱 15628
##念 15629
##忻 15630
##忽 15631
##忿 15632
##怀 15633
##态 15634
##怂 15635
##怅 15636
##怆 15637
##怎 15638
##怏 15639
##怒 15640
##怔 15641
##怕 15642
##怖 15643
##怙 15644
##怜 15645
##思 15646
##怠 15647
##怡 15648
##急 15649
##怦 15650
##性 15651
##怨 15652
##怪 15653
##怯 15654
##怵 15655
##总 15656
##怼 15657
##恁 15658
##恃 15659
##恆 15660
##恋 15661
##恍 15662
##恐 15663
##恒 15664
##恕 15665
##恙 15666
##恚 15667
##恢 15668
##恣 15669
##恤 15670
##恥 15671
##恨 15672
##恩 15673
##恪 15674
##恫 15675
##恬 15676
##恭 15677
##息 15678
##恰 15679
##恳 15680
##恵 15681
##恶 15682
##恸 15683
##恺 15684
##恻 15685
##恼 15686
##恿 15687
##悄 15688
##悅 15689
##悉 15690
##悌 15691
##悍 15692
##悔 15693
##悖 15694
##悚 15695
##悟 15696
##悠 15697
##患 15698
##悦 15699
##您 15700
##悩 15701
##悪 15702
##悬 15703
##悯 15704
##悱 15705
##悲 15706
##悴 15707
##悵 15708
##悶 15709
##悸 15710
##悻 15711
##悼 15712
##悽 15713
##情 15714
##惆 15715
##惇 15716
##惊 15717
##惋 15718
##惑 15719
##惕 15720
##惘 15721
##惚 15722
##惜 15723
##惟 15724
##惠 15725
##惡 15726
##惦 15727
##惧 15728
##惨 15729
##惩 15730
##惫 15731
##惬 15732
##惭 15733
##惮 15734
##惯 15735
##惰 15736
##惱 15737
##想 15738
##惴 15739
##惶 15740
##惹 15741
##惺 15742
##愁 15743
##愆 15744
##愈 15745
##愉 15746
##愍 15747
##意 15748
##愕 15749
##愚 15750
##愛 15751
##愜 15752
##感 15753
##愣 15754
##愤 15755
##愧 15756
##愫 15757
##愷 15758
##愿 15759
##慄 15760
##慈 15761
##態 15762
##慌 15763
##慎 15764
##慑 15765
##慕 15766
##慘 15767
##慚 15768
##慟 15769
##慢 15770
##慣 15771
##慧 15772
##慨 15773
##慫 15774
##慮 15775
##慰 15776
##慳 15777
##慵 15778
##慶 15779
##慷 15780
##慾 15781
##憂 15782
##憊 15783
##憋 15784
##憎 15785
##憐 15786
##憑 15787
##憔 15788
##憚 15789
##憤 15790
##憧 15791
##憨 15792
##憩 15793
##憫 15794
##憬 15795
##憲 15796
##憶 15797
##憾 15798
##懂 15799
##懇 15800
##懈 15801
##應 15802
##懊 15803
##懋 15804
##懑 15805
##懒 15806
##懦 15807
##懲 15808
##懵 15809
##懶 15810
##懷 15811
##懸 15812
##懺 15813
##懼 15814
##懾 15815
##懿 15816
##戀 15817
##戈 15818
##戊 15819
##戌 15820
##戍 15821
##戎 15822
##戏 15823
##成 15824
##我 15825
##戒 15826
##戕 15827
##或 15828
##战 15829
##戚 15830
##戛 15831
##戟 15832
##戡 15833
##戦 15834
##截 15835
##戬 15836
##戮 15837
##戰 15838
##戲 15839
##戳 15840
##戴 15841
##戶 15842
##户 15843
##戸 15844
##戻 15845
##戾 15846
##房 15847
##所 15848
##扁 15849
##扇 15850
##扈 15851
##扉 15852
##手 15853
##才 15854
##扎 15855
##扑 15856
##扒 15857
##打 15858
##扔 15859
##払 15860
##托 15861
##扛 15862
##扣 15863
##扦 15864
##执 15865
##扩 15866
##扪 15867
##扫 15868
##扬 15869
##扭 15870
##扮 15871
##扯 15872
##扰 15873
##扱 15874
##扳 15875
##扶 15876
##批 15877
##扼 15878
##找 15879
##承 15880
##技 15881
##抄 15882
##抉 15883
##把 15884
##抑 15885
##抒 15886
##抓 15887
##投 15888
##抖 15889
##抗 15890
##折 15891
##抚 15892
##抛 15893
##抜 15894
##択 15895
##抟 15896
##抠 15897
##抡 15898
##抢 15899
##护 15900
##报 15901
##抨 15902
##披 15903
##抬 15904
##抱 15905
##抵 15906
##抹 15907
##押 15908
##抽 15909
##抿 15910
##拂 15911
##拄 15912
##担 15913
##拆 15914
##拇 15915
##拈 15916
##拉 15917
##拋 15918
##拌 15919
##拍 15920
##拎 15921
##拐 15922
##拒 15923
##拓 15924
##拔 15925
##拖 15926
##拗 15927
##拘 15928
##拙 15929
##拚 15930
##招 15931
##拜 15932
##拟 15933
##拡 15934
##拢 15935
##拣 15936
##拥 15937
##拦 15938
##拧 15939
##拨 15940
##择 15941
##括 15942
##拭 15943
##拮 15944
##拯 15945
##拱 15946
##拳 15947
##拴 15948
##拷 15949
##拼 15950
##拽 15951
##拾 15952
##拿 15953
##持 15954
##挂 15955
##指 15956
##挈 15957
##按 15958
##挎 15959
##挑 15960
##挖 15961
##挙 15962
##挚 15963
##挛 15964
##挝 15965
##挞 15966
##挟 15967
##挠 15968
##挡 15969
##挣 15970
##挤 15971
##挥 15972
##挨 15973
##挪 15974
##挫 15975
##振 15976
##挲 15977
##挹 15978
##挺 15979
##挽 15980
##挾 15981
##捂 15982
##捅 15983
##捆 15984
##捉 15985
##捋 15986
##捌 15987
##捍 15988
##捎 15989
##捏 15990
##捐 15991
##捕 15992
##捞 15993
##损 15994
##捡 15995
##换 15996
##捣 15997
##捧 15998
##捨 15999
##捩 16000
##据 16001
##捱 16002
##捲 16003
##捶 16004
##捷 16005
##捺 16006
##捻 16007
##掀 16008
##掂 16009
##掃 16010
##掇 16011
##授 16012
##掉 16013
##掌 16014
##掏 16015
##掐 16016
##排 16017
##掖 16018
##掘 16019
##掙 16020
##掛 16021
##掠 16022
##採 16023
##探 16024
##掣 16025
##接 16026
##控 16027
##推 16028
##掩 16029
##措 16030
##掬 16031
##掰 16032
##掲 16033
##掳 16034
##掴 16035
##掷 16036
##掸 16037
##掺 16038
##揀 16039
##揃 16040
##揄 16041
##揆 16042
##揉 16043
##揍 16044
##描 16045
##提 16046
##插 16047
##揖 16048
##揚 16049
##換 16050
##握 16051
##揣 16052
##揩 16053
##揪 16054
##揭 16055
##揮 16056
##援 16057
##揶 16058
##揸 16059
##揹 16060
##揽 16061
##搀 16062
##搁 16063
##搂 16064
##搅 16065
##損 16066
##搏 16067
##搐 16068
##搓 16069
##搔 16070
##搖 16071
##搗 16072
##搜 16073
##搞 16074
##搡 16075
##搪 16076
##搬 16077
##搭 16078
##搵 16079
##搶 16080
##携 16081
##搽 16082
##摀 16083
##摁 16084
##摄 16085
##摆 16086
##摇 16087
##摈 16088
##摊 16089
##摒 16090
##摔 16091
##摘 16092
##摞 16093
##摟 16094
##摧 16095
##摩 16096
##摯 16097
##摳 16098
##摸 16099
##摹 16100
##摺 16101
##摻 16102
##撂 16103
##撃 16104
##撅 16105
##撇 16106
##撈 16107
##撐 16108
##撑 16109
##撒 16110
##撓 16111
##撕 16112
##撚 16113
##撞 16114
##撤 16115
##撥 16116
##撩 16117
##撫 16118
##撬 16119
##播 16120
##撮 16121
##撰 16122
##撲 16123
##撵 16124
##撷 16125
##撸 16126
##撻 16127
##撼 16128
##撿 16129
##擀 16130
##擁 16131
##擂 16132
##擄 16133
##擅 16134
##擇 16135
##擊 16136
##擋 16137
##操 16138
##擎 16139
##擒 16140
##擔 16141
##擘 16142
##據 16143
##擞 16144
##擠 16145
##擡 16146
##擢 16147
##擦 16148
##擬 16149
##擰 16150
##擱 16151
##擲 16152
##擴 16153
##擷 16154
##擺 16155
##擼 16156
##擾 16157
##攀 16158
##攏 16159
##攒 16160
##攔 16161
##攘 16162
##攙 16163
##攜 16164
##攝 16165
##攞 16166
##攢 16167
##攣 16168
##攤 16169
##攥 16170
##攪 16171
##攫 16172
##攬 16173
##支 16174
##收 16175
##攸 16176
##改 16177
##攻 16178
##放 16179
##政 16180
##故 16181
##效 16182
##敌 16183
##敍 16184
##敎 16185
##敏 16186
##救 16187
##敕 16188
##敖 16189
##敗 16190
##敘 16191
##教 16192
##敛 16193
##敝 16194
##敞 16195
##敢 16196
##散 16197
##敦 16198
##敬 16199
##数 16200
##敲 16201
##整 16202
##敵 16203
##敷 16204
##數 16205
##斂 16206
##斃 16207
##文 16208
##斋 16209
##斌 16210
##斎 16211
##斐 16212
##斑 16213
##斓 16214
##斗 16215
##料 16216
##斛 16217
##斜 16218
##斟 16219
##斡 16220
##斤 16221
##斥 16222
##斧 16223
##斩 16224
##斫 16225
##斬 16226
##断 16227
##斯 16228
##新 16229
##斷 16230
##方 16231
##於 16232
##施 16233
##旁 16234
##旃 16235
##旅 16236
##旋 16237
##旌 16238
##旎 16239
##族 16240
##旖 16241
##旗 16242
##无 16243
##既 16244
##日 16245
##旦 16246
##旧 16247
##旨 16248
##早 16249
##旬 16250
##旭 16251
##旮 16252
##旱 16253
##时 16254
##旷 16255
##旺 16256
##旻 16257
##昀 16258
##昂 16259
##昆 16260
##昇 16261
##昉 16262
##昊 16263
##昌 16264
##明 16265
##昏 16266
##易 16267
##昔 16268
##昕 16269
##昙 16270
##星 16271
##映 16272
##春 16273
##昧 16274
##昨 16275
##昭 16276
##是 16277
##昱 16278
##昴 16279
##昵 16280
##昶 16281
##昼 16282
##显 16283
##晁 16284
##時 16285
##晃 16286
##晉 16287
##晋 16288
##晌 16289
##晏 16290
##晒 16291
##晓 16292
##晔 16293
##晕 16294
##晖 16295
##晗 16296
##晚 16297
##晝 16298
##晞 16299
##晟 16300
##晤 16301
##晦 16302
##晨 16303
##晩 16304
##普 16305
##景 16306
##晰 16307
##晴 16308
##晶 16309
##晷 16310
##智 16311
##晾 16312
##暂 16313
##暄 16314
##暇 16315
##暈 16316
##暉 16317
##暌 16318
##暐 16319
##暑 16320
##暖 16321
##暗 16322
##暝 16323
##暢 16324
##暧 16325
##暨 16326
##暫 16327
##暮 16328
##暱 16329
##暴 16330
##暸 16331
##暹 16332
##曄 16333
##曆 16334
##曇 16335
##曉 16336
##曖 16337
##曙 16338
##曜 16339
##曝 16340
##曠 16341
##曦 16342
##曬 16343
##曰 16344
##曲 16345
##曳 16346
##更 16347
##書 16348
##曹 16349
##曼 16350
##曾 16351
##替 16352
##最 16353
##會 16354
##月 16355
##有 16356
##朋 16357
##服 16358
##朐 16359
##朔 16360
##朕 16361
##朗 16362
##望 16363
##朝 16364
##期 16365
##朦 16366
##朧 16367
##木 16368
##未 16369
##末 16370
##本 16371
##札 16372
##朮 16373
##术 16374
##朱 16375
##朴 16376
##朵 16377
##机 16378
##朽 16379
##杀 16380
##杂 16381
##权 16382
##杆 16383
##杈 16384
##杉 16385
##李 16386
##杏 16387
##材 16388
##村 16389
##杓 16390
##杖 16391
##杜 16392
##杞 16393
##束 16394
##杠 16395
##条 16396
##来 16397
##杨 16398
##杭 16399
##杯 16400
##杰 16401
##東 16402
##杳 16403
##杵 16404
##杷 16405
##杼 16406
##松 16407
##板 16408
##极 16409
##构 16410
##枇 16411
##枉 16412
##枋 16413
##析 16414
##枕 16415
##林 16416
##枚 16417
##果 16418
##枝 16419
##枢 16420
##枣 16421
##枪 16422
##枫 16423
##枭 16424
##枯 16425
##枰 16426
##枱 16427
##枳 16428
##架 16429
##枷 16430
##枸 16431
##柄 16432
##柏 16433
##某 16434
##柑 16435
##柒 16436
##染 16437
##柔 16438
##柘 16439
##柚 16440
##柜 16441
##柞 16442
##柠 16443
##柢 16444
##查 16445
##柩 16446
##柬 16447
##柯 16448
##柱 16449
##柳 16450
##柴 16451
##柵 16452
##査 16453
##柿 16454
##栀 16455
##栃 16456
##栄 16457
##栅 16458
##标 16459
##栈 16460
##栉 16461
##栋 16462
##栎 16463
##栏 16464
##树 16465
##栓 16466
##栖 16467
##栗 16468
##校 16469
##栩 16470
##株 16471
##样 16472
##核 16473
##根 16474
##格 16475
##栽 16476
##栾 16477
##桀 16478
##桁 16479
##桂 16480
##桃 16481
##桅 16482
##框 16483
##案 16484
##桉 16485
##桌 16486
##桎 16487
##桐 16488
##桑 16489
##桓 16490
##桔 16491
##桜 16492
##桠 16493
##桡 16494
##桢 16495
##档 16496
##桥 16497
##桦 16498
##桧 16499
##桨 16500
##桩 16501
##桶 16502
##桿 16503
##梁 16504
##梅 16505
##梆 16506
##梏 16507
##梓 16508
##梗 16509
##條 16510
##梟 16511
##梢 16512
##梦 16513
##梧 16514
##梨 16515
##梭 16516
##梯 16517
##械 16518
##梳 16519
##梵 16520
##梶 16521
##检 16522
##棂 16523
##棄 16524
##棉 16525
##棋 16526
##棍 16527
##棒 16528
##棕 16529
##棗 16530
##棘 16531
##棚 16532
##棟 16533
##棠 16534
##棣 16535
##棧 16536
##森 16537
##棱 16538
##棲 16539
##棵 16540
##棹 16541
##棺 16542
##椁 16543
##椅 16544
##椋 16545
##植 16546
##椎 16547
##椒 16548
##検 16549
##椪 16550
##椭 16551
##椰 16552
##椹 16553
##椽 16554
##椿 16555
##楂 16556
##楊 16557
##楓 16558
##楔 16559
##楚 16560
##楝 16561
##楞 16562
##楠 16563
##楣 16564
##楨 16565
##楫 16566
##業 16567
##楮 16568
##極 16569
##楷 16570
##楸 16571
##楹 16572
##楼 16573
##楽 16574
##概 16575
##榄 16576
##榆 16577
##榈 16578
##榉 16579
##榔 16580
##榕 16581
##榖 16582
##榛 16583
##榜 16584
##榨 16585
##榫 16586
##榭 16587
##榮 16588
##榱 16589
##榴 16590
##榷 16591
##榻 16592
##槁 16593
##槃 16594
##構 16595
##槌 16596
##槍 16597
##槎 16598
##槐 16599
##槓 16600
##様 16601
##槛 16602
##槟 16603
##槤 16604
##槭 16605
##槲 16606
##槳 16607
##槻 16608
##槽 16609
##槿 16610
##樁 16611
##樂 16612
##樊 16613
##樑 16614
##樓 16615
##標 16616
##樞 16617
##樟 16618
##模 16619
##樣 16620
##権 16621
##横 16622
##樫 16623
##樯 16624
##樱 16625
##樵 16626
##樸 16627
##樹 16628
##樺 16629
##樽 16630
##樾 16631
##橄 16632
##橇 16633
##橋 16634
##橐 16635
##橘 16636
##橙 16637
##機 16638
##橡 16639
##橢 16640
##橫 16641
##橱 16642
##橹 16643
##橼 16644
##檀 16645
##檄 16646
##檎 16647
##檐 16648
##檔 16649
##檗 16650
##檜 16651
##檢 16652
##檬 16653
##檯 16654
##檳 16655
##檸 16656
##檻 16657
##櫃 16658
##櫚 16659
##櫛 16660
##櫥 16661
##櫸 16662
##櫻 16663
##欄 16664
##權 16665
##欒 16666
##欖 16667
##欠 16668
##次 16669
##欢 16670
##欣 16671
##欧 16672
##欲 16673
##欸 16674
##欺 16675
##欽 16676
##款 16677
##歆 16678
##歇 16679
##歉 16680
##歌 16681
##歎 16682
##歐 16683
##歓 16684
##歙 16685
##歛 16686
##歡 16687
##止 16688
##正 16689
##此 16690
##步 16691
##武 16692
##歧 16693
##歩 16694
##歪 16695
##歯 16696
##歲 16697
##歳 16698
##歴 16699
##歷 16700
##歸 16701
##歹 16702
##死 16703
##歼 16704
##殁 16705
##殃 16706
##殆 16707
##殇 16708
##殉 16709
##殊 16710
##残 16711
##殒 16712
##殓 16713
##殖 16714
##殘 16715
##殞 16716
##殡 16717
##殤 16718
##殭 16719
##殯 16720
##殲 16721
##殴 16722
##段 16723
##殷 16724
##殺 16725
##殼 16726
##殿 16727
##毀 16728
##毁 16729
##毂 16730
##毅 16731
##毆 16732
##毋 16733
##母 16734
##毎 16735
##每 16736
##毒 16737
##毓 16738
##比 16739
##毕 16740
##毗 16741
##毘 16742
##毙 16743
##毛 16744
##毡 16745
##毫 16746
##毯 16747
##毽 16748
##氈 16749
##氏 16750
##氐 16751
##民 16752
##氓 16753
##气 16754
##氖 16755
##気 16756
##氙 16757
##氛 16758
##氟 16759
##氡 16760
##氢 16761
##氣 16762
##氤 16763
##氦 16764
##氧 16765
##氨 16766
##氪 16767
##氫 16768
##氮 16769
##氯 16770
##氰 16771
##氲 16772
##水 16773
##氷 16774
##永 16775
##氹 16776
##氾 16777
##汀 16778
##汁 16779
##求 16780
##汆 16781
##汇 16782
##汉 16783
##汎 16784
##汐 16785
##汕 16786
##汗 16787
##汙 16788
##汛 16789
##汝 16790
##汞 16791
##江 16792
##池 16793
##污 16794
##汤 16795
##汨 16796
##汩 16797
##汪 16798
##汰 16799
##汲 16800
##汴 16801
##汶 16802
##汹 16803
##決 16804
##汽 16805
##汾 16806
##沁 16807
##沂 16808
##沃 16809
##沅 16810
##沈 16811
##沉 16812
##沌 16813
##沏 16814
##沐 16815
##沒 16816
##沓 16817
##沖 16818
##沙 16819
##沛 16820
##沟 16821
##没 16822
##沢 16823
##沣 16824
##沥 16825
##沦 16826
##沧 16827
##沪 16828
##沫 16829
##沭 16830
##沮 16831
##沱 16832
##河 16833
##沸 16834
##油 16835
##治 16836
##沼 16837
##沽 16838
##沾 16839
##沿 16840
##況 16841
##泄 16842
##泉 16843
##泊 16844
##泌 16845
##泓 16846
##法 16847
##泗 16848
##泛 16849
##泞 16850
##泠 16851
##泡 16852
##波 16853
##泣 16854
##泥 16855
##注 16856
##泪 16857
##泫 16858
##泮 16859
##泯 16860
##泰 16861
##泱 16862
##泳 16863
##泵 16864
##泷 16865
##泸 16866
##泻 16867
##泼 16868
##泽 16869
##泾 16870
##洁 16871
##洄 16872
##洋 16873
##洒 16874
##洗 16875
##洙 16876
##洛 16877
##洞 16878
##津 16879
##洩 16880
##洪 16881
##洮 16882
##洱 16883
##洲 16884
##洵 16885
##洶 16886
##洸 16887
##洹 16888
##活 16889
##洼 16890
##洽 16891
##派 16892
##流 16893
##浃 16894
##浄 16895
##浅 16896
##浆 16897
##浇 16898
##浊 16899
##测 16900
##济 16901
##浏 16902
##浑 16903
##浒 16904
##浓 16905
##浔 16906
##浙 16907
##浚 16908
##浜 16909
##浣 16910
##浦 16911
##浩 16912
##浪 16913
##浬 16914
##浮 16915
##浯 16916
##浴 16917
##海 16918
##浸 16919
##涂 16920
##涅 16921
##涇 16922
##消 16923
##涉 16924
##涌 16925
##涎 16926
##涓 16927
##涔 16928
##涕 16929
##涙 16930
##涛 16931
##涝 16932
##涞 16933
##涟 16934
##涠 16935
##涡 16936
##涣 16937
##涤 16938
##润 16939
##涧 16940
##涨 16941
##涩 16942
##涪 16943
##涮 16944
##涯 16945
##液 16946
##涵 16947
##涸 16948
##涼 16949
##涿 16950
##淀 16951
##淄 16952
##淅 16953
##淆 16954
##淇 16955
##淋 16956
##淌 16957
##淑 16958
##淒 16959
##淖 16960
##淘 16961
##淙 16962
##淚 16963
##淞 16964
##淡 16965
##淤 16966
##淦 16967
##淨 16968
##淩 16969
##淪 16970
##淫 16971
##淬 16972
##淮 16973
##深 16974
##淳 16975
##淵 16976
##混 16977
##淹 16978
##淺 16979
##添 16980
##淼 16981
##清 16982
##済 16983
##渉 16984
##渊 16985
##渋 16986
##渍 16987
##渎 16988
##渐 16989
##渔 16990
##渗 16991
##渙 16992
##渚 16993
##減 16994
##渝 16995
##渠 16996
##渡 16997
##渣 16998
##渤 16999
##渥 17000
##渦 17001
##温 17002
##測 17003
##渭 17004
##港 17005
##渲 17006
##渴 17007
##游 17008
##渺 17009
##渾 17010
##湃 17011
##湄 17012
##湊 17013
##湍 17014
##湖 17015
##湘 17016
##湛 17017
##湟 17018
##湧 17019
##湫 17020
##湮 17021
##湯 17022
##湳 17023
##湾 17024
##湿 17025
##満 17026
##溃 17027
##溅 17028
##溉 17029
##溏 17030
##源 17031
##準 17032
##溜 17033
##溝 17034
##溟 17035
##溢 17036
##溥 17037
##溧 17038
##溪 17039
##溫 17040
##溯 17041
##溱 17042
##溴 17043
##溶 17044
##溺 17045
##溼 17046
##滁 17047
##滂 17048
##滄 17049
##滅 17050
##滇 17051
##滋 17052
##滌 17053
##滑 17054
##滓 17055
##滔 17056
##滕 17057
##滙 17058
##滚 17059
##滝 17060
##滞 17061
##滟 17062
##满 17063
##滢 17064
##滤 17065
##滥 17066
##滦 17067
##滨 17068
##滩 17069
##滬 17070
##滯 17071
##滲 17072
##滴 17073
##滷 17074
##滸 17075
##滾 17076
##滿 17077
##漁 17078
##漂 17079
##漆 17080
##漉 17081
##漏 17082
##漓 17083
##演 17084
##漕 17085
##漠 17086
##漢 17087
##漣 17088
##漩 17089
##漪 17090
##漫 17091
##漬 17092
##漯 17093
##漱 17094
##漲 17095
##漳 17096
##漸 17097
##漾 17098
##漿 17099
##潆 17100
##潇 17101
##潋 17102
##潍 17103
##潑 17104
##潔 17105
##潘 17106
##潛 17107
##潜 17108
##潞 17109
##潟 17110
##潢 17111
##潤 17112
##潦 17113
##潧 17114
##潭 17115
##潮 17116
##潰 17117
##潴 17118
##潸 17119
##潺 17120
##潼 17121
##澀 17122
##澄 17123
##澆 17124
##澈 17125
##澍 17126
##澎 17127
##澗 17128
##澜 17129
##澡 17130
##澤 17131
##澧 17132
##澱 17133
##澳 17134
##澹 17135
##激 17136
##濁 17137
##濂 17138
##濃 17139
##濑 17140
##濒 17141
##濕 17142
##濘 17143
##濛 17144
##濟 17145
##濠 17146
##濡 17147
##濤 17148
##濫 17149
##濬 17150
##濮 17151
##濯 17152
##濱 17153
##濺 17154
##濾 17155
##瀅 17156
##瀆 17157
##瀉 17158
##瀋 17159
##瀏 17160
##瀑 17161
##瀕 17162
##瀘 17163
##瀚 17164
##瀛 17165
##瀝 17166
##瀞 17167
##瀟 17168
##瀧 17169
##瀨 17170
##瀬 17171
##瀰 17172
##瀾 17173
##灌 17174
##灏 17175
##灑 17176
##灘 17177
##灝 17178
##灞 17179
##灣 17180
##火 17181
##灬 17182
##灭 17183
##灯 17184
##灰 17185
##灵 17186
##灶 17187
##灸 17188
##灼 17189
##災 17190
##灾 17191
##灿 17192
##炀 17193
##炁 17194
##炅 17195
##炉 17196
##炊 17197
##炎 17198
##炒 17199
##炔 17200
##炕 17201
##炖 17202
##炙 17203
##炜 17204
##炫 17205
##炬 17206
##炭 17207
##炮 17208
##炯 17209
##炳 17210
##炷 17211
##炸 17212
##点 17213
##為 17214
##炼 17215
##炽 17216
##烁 17217
##烂 17218
##烃 17219
##烈 17220
##烊 17221
##烏 17222
##烘 17223
##烙 17224
##烛 17225
##烟 17226
##烤 17227
##烦 17228
##烧 17229
##烨 17230
##烩 17231
##烫 17232
##烬 17233
##热 17234
##烯 17235
##烷 17236
##烹 17237
##烽 17238
##焉 17239
##焊 17240
##焕 17241
##焖 17242
##焗 17243
##焘 17244
##焙 17245
##焚 17246
##焜 17247
##無 17248
##焦 17249
##焯 17250
##焰 17251
##焱 17252
##然 17253
##焼 17254
##煅 17255
##煉 17256
##煊 17257
##煌 17258
##煎 17259
##煒 17260
##煖 17261
##煙 17262
##煜 17263
##煞 17264
##煤 17265
##煥 17266
##煦 17267
##照 17268
##煨 17269
##煩 17270
##煮 17271
##煲 17272
##煸 17273
##煽 17274
##熄 17275
##熊 17276
##熏 17277
##熒 17278
##熔 17279
##熙 17280
##熟 17281
##熠 17282
##熨 17283
##熬 17284
##熱 17285
##熵 17286
##熹 17287
##熾 17288
##燁 17289
##燃 17290
##燄 17291
##燈 17292
##燉 17293
##燊 17294
##燎 17295
##燒 17296
##燔 17297
##燕 17298
##燙 17299
##燜 17300
##營 17301
##燥 17302
##燦 17303
##燧 17304
##燭 17305
##燮 17306
##燴 17307
##燻 17308
##燼 17309
##燿 17310
##爆 17311
##爍 17312
##爐 17313
##爛 17314
##爪 17315
##爬 17316
##爭 17317
##爰 17318
##爱 17319
##爲 17320
##爵 17321
##父 17322
##爷 17323
##爸 17324
##爹 17325
##爺 17326
##爻 17327
##爽 17328
##爾 17329
##牆 17330
##片 17331
##版 17332
##牌 17333
##牍 17334
##牒 17335
##牙 17336
##牛 17337
##牝 17338
##牟 17339
##牠 17340
##牡 17341
##牢 17342
##牦 17343
##牧 17344
##物 17345
##牯 17346
##牲 17347
##牴 17348
##牵 17349
##特 17350
##牺 17351
##牽 17352
##犀 17353
##犁 17354
##犄 17355
##犊 17356
##犍 17357
##犒 17358
##犢 17359
##犧 17360
##犬 17361
##犯 17362
##状 17363
##犷 17364
##犸 17365
##犹 17366
##狀 17367
##狂 17368
##狄 17369
##狈 17370
##狎 17371
##狐 17372
##狒 17373
##狗 17374
##狙 17375
##狞 17376
##狠 17377
##狡 17378
##狩 17379
##独 17380
##狭 17381
##狮 17382
##狰 17383
##狱 17384
##狸 17385
##狹 17386
##狼 17387
##狽 17388
##猎 17389
##猕 17390
##猖 17391
##猗 17392
##猙 17393
##猛 17394
##猜 17395
##猝 17396
##猥 17397
##猩 17398
##猪 17399
##猫 17400
##猬 17401
##献 17402
##猴 17403
##猶 17404
##猷 17405
##猾 17406
##猿 17407
##獄 17408
##獅 17409
##獎 17410
##獐 17411
##獒 17412
##獗 17413
##獠 17414
##獣 17415
##獨 17416
##獭 17417
##獰 17418
##獲 17419
##獵 17420
##獷 17421
##獸 17422
##獺 17423
##獻 17424
##獼 17425
##獾 17426
##玄 17427
##率 17428
##玉 17429
##王 17430
##玑 17431
##玖 17432
##玛 17433
##玟 17434
##玠 17435
##玥 17436
##玩 17437
##玫 17438
##玮 17439
##环 17440
##现 17441
##玲 17442
##玳 17443
##玷 17444
##玺 17445
##玻 17446
##珀 17447
##珂 17448
##珅 17449
##珈 17450
##珉 17451
##珊 17452
##珍 17453
##珏 17454
##珐 17455
##珑 17456
##珙 17457
##珞 17458
##珠 17459
##珣 17460
##珥 17461
##珩 17462
##珪 17463
##班 17464
##珮 17465
##珲 17466
##珺 17467
##現 17468
##球 17469
##琅 17470
##理 17471
##琇 17472
##琉 17473
##琊 17474
##琍 17475
##琏 17476
##琐 17477
##琛 17478
##琢 17479
##琥 17480
##琦 17481
##琨 17482
##琪 17483
##琬 17484
##琮 17485
##琰 17486
##琲 17487
##琳 17488
##琴 17489
##琵 17490
##琶 17491
##琺 17492
##琼 17493
##瑀 17494
##瑁 17495
##瑄 17496
##瑋 17497
##瑕 17498
##瑗 17499
##瑙 17500
##瑚 17501
##瑛 17502
##瑜 17503
##瑞 17504
##瑟 17505
##瑠 17506
##瑣 17507
##瑤 17508
##瑩 17509
##瑪 17510
##瑯 17511
##瑰 17512
##瑶 17513
##瑾 17514
##璀 17515
##璁 17516
##璃 17517
##璇 17518
##璉 17519
##璋 17520
##璎 17521
##璐 17522
##璜 17523
##璞 17524
##璟 17525
##璧 17526
##璨 17527
##環 17528
##璽 17529
##璿 17530
##瓊 17531
##瓏 17532
##瓒 17533
##瓜 17534
##瓢 17535
##瓣 17536
##瓤 17537
##瓦 17538
##瓮 17539
##瓯 17540
##瓴 17541
##瓶 17542
##瓷 17543
##甄 17544
##甌 17545
##甕 17546
##甘 17547
##甙 17548
##甚 17549
##甜 17550
##生 17551
##產 17552
##産 17553
##甥 17554
##甦 17555
##用 17556
##甩 17557
##甫 17558
##甬 17559
##甭 17560
##甯 17561
##田 17562
##由 17563
##甲 17564
##申 17565
##电 17566
##男 17567
##甸 17568
##町 17569
##画 17570
##甾 17571
##畀 17572
##畅 17573
##界 17574
##畏 17575
##畑 17576
##畔 17577
##留 17578
##畜 17579
##畝 17580
##畢 17581
##略 17582
##畦 17583
##番 17584
##畫 17585
##異 17586
##畲 17587
##畳 17588
##畴 17589
##當 17590
##畸 17591
##畹 17592
##畿 17593
##疆 17594
##疇 17595
##疊 17596
##疏 17597
##疑 17598
##疔 17599
##疖 17600
##疗 17601
##疙 17602
##疚 17603
##疝 17604
##疟 17605
##疡 17606
##疣 17607
##疤 17608
##疥 17609
##疫 17610
##疮 17611
##疯 17612
##疱 17613
##疲 17614
##疳 17615
##疵 17616
##疸 17617
##疹 17618
##疼 17619
##疽 17620
##疾 17621
##痂 17622
##病 17623
##症 17624
##痈 17625
##痉 17626
##痊 17627
##痍 17628
##痒 17629
##痔 17630
##痕 17631
##痘 17632
##痙 17633
##痛 17634
##痞 17635
##痠 17636
##痢 17637
##痣 17638
##痤 17639
##痧 17640
##痨 17641
##痪 17642
##痫 17643
##痰 17644
##痱 17645
##痴 17646
##痹 17647
##痺 17648
##痼 17649
##痿 17650
##瘀 17651
##瘁 17652
##瘋 17653
##瘍 17654
##瘓 17655
##瘘 17656
##瘙 17657
##瘟 17658
##瘠 17659
##瘡 17660
##瘢 17661
##瘤 17662
##瘦 17663
##瘧 17664
##瘩 17665
##瘪 17666
##瘫 17667
##瘴 17668
##瘸 17669
##瘾 17670
##療 17671
##癇 17672
##癌 17673
##癒 17674
##癖 17675
##癜 17676
##癞 17677
##癡 17678
##癢 17679
##癣 17680
##癥 17681
##癫 17682
##癬 17683
##癮 17684
##癱 17685
##癲 17686
##癸 17687
##発 17688
##登 17689
##發 17690
##白 17691
##百 17692
##皂 17693
##的 17694
##皆 17695
##皇 17696
##皈 17697
##皋 17698
##皎 17699
##皑 17700
##皓 17701
##皖 17702
##皙 17703
##皚 17704
##皮 17705
##皰 17706
##皱 17707
##皴 17708
##皺 17709
##皿 17710
##盂 17711
##盃 17712
##盅 17713
##盆 17714
##盈 17715
##益 17716
##盎 17717
##盏 17718
##盐 17719
##监 17720
##盒 17721
##盔 17722
##盖 17723
##盗 17724
##盘 17725
##盛 17726
##盜 17727
##盞 17728
##盟 17729
##盡 17730
##監 17731
##盤 17732
##盥 17733
##盧 17734
##盪 17735
##目 17736
##盯 17737
##盱 17738
##盲 17739
##直 17740
##相 17741
##盹 17742
##盼 17743
##盾 17744
##省 17745
##眈 17746
##眉 17747
##看 17748
##県 17749
##眙 17750
##眞 17751
##真 17752
##眠 17753
##眦 17754
##眨 17755
##眩 17756
##眯 17757
##眶 17758
##眷 17759
##眸 17760
##眺 17761
##眼 17762
##眾 17763
##着 17764
##睁 17765
##睇 17766
##睏 17767
##睐 17768
##睑 17769
##睛 17770
##睜 17771
##睞 17772
##睡 17773
##睢 17774
##督 17775
##睥 17776
##睦 17777
##睨 17778
##睪 17779
##睫 17780
##睬 17781
##睹 17782
##睽 17783
##睾 17784
##睿 17785
##瞄 17786
##瞅 17787
##瞇 17788
##瞋 17789
##瞌 17790
##瞎 17791
##瞑 17792
##瞒 17793
##瞓 17794
##瞞 17795
##瞟 17796
##瞠 17797
##瞥 17798
##瞧 17799
##瞩 17800
##瞪 17801
##瞬 17802
##瞭 17803
##瞰 17804
##瞳 17805
##瞻 17806
##瞼 17807
##瞿 17808
##矇 17809
##矍 17810
##矗 17811
##矚 17812
##矛 17813
##矜 17814
##矢 17815
##矣 17816
##知 17817
##矩 17818
##矫 17819
##短 17820
##矮 17821
##矯 17822
##石 17823
##矶 17824
##矽 17825
##矾 17826
##矿 17827
##码 17828
##砂 17829
##砌 17830
##砍 17831
##砒 17832
##研 17833
##砖 17834
##砗 17835
##砚 17836
##砝 17837
##砣 17838
##砥 17839
##砧 17840
##砭 17841
##砰 17842
##砲 17843
##破 17844
##砷 17845
##砸 17846
##砺 17847
##砼 17848
##砾 17849
##础 17850
##硅 17851
##硐 17852
##硒 17853
##硕 17854
##硝 17855
##硫 17856
##硬 17857
##确 17858
##硯 17859
##硼 17860
##碁 17861
##碇 17862
##碉 17863
##碌 17864
##碍 17865
##碎 17866
##碑 17867
##碓 17868
##碗 17869
##碘 17870
##碚 17871
##碛 17872
##碟 17873
##碣 17874
##碧 17875
##碩 17876
##碰 17877
##碱 17878
##碳 17879
##碴 17880
##確 17881
##碼 17882
##碾 17883
##磁 17884
##磅 17885
##磊 17886
##磋 17887
##磐 17888
##磕 17889
##磚 17890
##磡 17891
##磨 17892
##磬 17893
##磯 17894
##磲 17895
##磷 17896
##磺 17897
##礁 17898
##礎 17899
##礙 17900
##礡 17901
##礦 17902
##礪 17903
##礫 17904
##礴 17905
##示 17906
##礼 17907
##社 17908
##祀 17909
##祁 17910
##祂 17911
##祇 17912
##祈 17913
##祉 17914
##祎 17915
##祐 17916
##祕 17917
##祖 17918
##祗 17919
##祚 17920
##祛 17921
##祜 17922
##祝 17923
##神 17924
##祟 17925
##祠 17926
##祢 17927
##祥 17928
##票 17929
##祭 17930
##祯 17931
##祷 17932
##祸 17933
##祺 17934
##祿 17935
##禀 17936
##禁 17937
##禄 17938
##禅 17939
##禍 17940
##禎 17941
##福 17942
##禛 17943
##禦 17944
##禧 17945
##禪 17946
##禮 17947
##禱 17948
##禹 17949
##禺 17950
##离 17951
##禽 17952
##禾 17953
##禿 17954
##秀 17955
##私 17956
##秃 17957
##秆 17958
##秉 17959
##秋 17960
##种 17961
##科 17962
##秒 17963
##秘 17964
##租 17965
##秣 17966
##秤 17967
##秦 17968
##秧 17969
##秩 17970
##秭 17971
##积 17972
##称 17973
##秸 17974
##移 17975
##秽 17976
##稀 17977
##稅 17978
##程 17979
##稍 17980
##税 17981
##稔 17982
##稗 17983
##稚 17984
##稜 17985
##稞 17986
##稟 17987
##稠 17988
##稣 17989
##種 17990
##稱 17991
##稲 17992
##稳 17993
##稷 17994
##稹 17995
##稻 17996
##稼 17997
##稽 17998
##稿 17999
##穀 18000
##穂 18001
##穆 18002
##穌 18003
##積 18004
##穎 18005
##穗 18006
##穢 18007
##穩 18008
##穫 18009
##穴 18010
##究 18011
##穷 18012
##穹 18013
##空 18014
##穿 18015
##突 18016
##窃 18017
##窄 18018
##窈 18019
##窍 18020
##窑 18021
##窒 18022
##窓 18023
##窕 18024
##窖 18025
##窗 18026
##窘 18027
##窜 18028
##窝 18029
##窟 18030
##窠 18031
##窥 18032
##窦 18033
##窨 18034
##窩 18035
##窪 18036
##窮 18037
##窯 18038
##窺 18039
##窿 18040
##竄 18041
##竅 18042
##竇 18043
##竊 18044
##立 18045
##竖 18046
##站 18047
##竜 18048
##竞 18049
##竟 18050
##章 18051
##竣 18052
##童 18053
##竭 18054
##端 18055
##競 18056
##竹 18057
##竺 18058
##竽 18059
##竿 18060
##笃 18061
##笆 18062
##笈 18063
##笋 18064
##笏 18065
##笑 18066
##笔 18067
##笙 18068
##笛 18069
##笞 18070
##笠 18071
##符 18072
##笨 18073
##第 18074
##笹 18075
##笺 18076
##笼 18077
##筆 18078
##等 18079
##筊 18080
##筋 18081
##筍 18082
##筏 18083
##筐 18084
##筑 18085
##筒 18086
##答 18087
##策 18088
##筛 18089
##筝 18090
##筠 18091
##筱 18092
##筲 18093
##筵 18094
##筷 18095
##筹 18096
##签 18097
##简 18098
##箇 18099
##箋 18100
##箍 18101
##箏 18102
##箐 18103
##箔 18104
##箕 18105
##算 18106
##箝 18107
##管 18108
##箩 18109
##箫 18110
##箭 18111
##箱 18112
##箴 18113
##箸 18114
##節 18115
##篁 18116
##範 18117
##篆 18118
##篇 18119
##築 18120
##篑 18121
##篓 18122
##篙 18123
##篝 18124
##篠 18125
##篡 18126
##篤 18127
##篩 18128
##篪 18129
##篮 18130
##篱 18131
##篷 18132
##簇 18133
##簌 18134
##簍 18135
##簡 18136
##簦 18137
##簧 18138
##簪 18139
##簫 18140
##簷 18141
##簸 18142
##簽 18143
##簾 18144
##簿 18145
##籁 18146
##籃 18147
##籌 18148
##籍 18149
##籐 18150
##籟 18151
##籠 18152
##籤 18153
##籬 18154
##籮 18155
##籲 18156
##米 18157
##类 18158
##籼 18159
##籽 18160
##粄 18161
##粉 18162
##粑 18163
##粒 18164
##粕 18165
##粗 18166
##粘 18167
##粟 18168
##粤 18169
##粥 18170
##粧 18171
##粪 18172
##粮 18173
##粱 18174
##粲 18175
##粳 18176
##粵 18177
##粹 18178
##粼 18179
##粽 18180
##精 18181
##粿 18182
##糅 18183
##糊 18184
##糍 18185
##糕 18186
##糖 18187
##糗 18188
##糙 18189
##糜 18190
##糞 18191
##糟 18192
##糠 18193
##糧 18194
##糬 18195
##糯 18196
##糰 18197
##糸 18198
##系 18199
##糾 18200
##紀 18201
##紂 18202
##約 18203
##紅 18204
##紉 18205
##紊 18206
##紋 18207
##納 18208
##紐 18209
##紓 18210
##純 18211
##紗 18212
##紘 18213
##紙 18214
##級 18215
##紛 18216
##紜 18217
##素 18218
##紡 18219
##索 18220
##紧 18221
##紫 18222
##紮 18223
##累 18224
##細 18225
##紳 18226
##紹 18227
##紺 18228
##終 18229
##絃 18230
##組 18231
##絆 18232
##経 18233
##結 18234
##絕 18235
##絞 18236
##絡 18237
##絢 18238
##給 18239
##絨 18240
##絮 18241
##統 18242
##絲 18243
##絳 18244
##絵 18245
##絶 18246
##絹 18247
##綁 18248
##綏 18249
##綑 18250
##經 18251
##継 18252
##続 18253
##綜 18254
##綠 18255
##綢 18256
##綦 18257
##綫 18258
##綬 18259
##維 18260
##綱 18261
##網 18262
##綴 18263
##綵 18264
##綸 18265
##綺 18266
##綻 18267
##綽 18268
##綾 18269
##綿 18270
##緊 18271
##緋 18272
##総 18273
##緑 18274
##緒 18275
##緘 18276
##線 18277
##緝 18278
##緞 18279
##締 18280
##緣 18281
##編 18282
##緩 18283
##緬 18284
##緯 18285
##練 18286
##緹 18287
##緻 18288
##縁 18289
##縄 18290
##縈 18291
##縛 18292
##縝 18293
##縣 18294
##縫 18295
##縮 18296
##縱 18297
##縴 18298
##縷 18299
##總 18300
##績 18301
##繁 18302
##繃 18303
##繆 18304
##繇 18305
##繋 18306
##織 18307
##繕 18308
##繚 18309
##繞 18310
##繡 18311
##繩 18312
##繪 18313
##繫 18314
##繭 18315
##繳 18316
##繹 18317
##繼 18318
##繽 18319
##纂 18320
##續 18321
##纍 18322
##纏 18323
##纓 18324
##纔 18325
##纖 18326
##纜 18327
##纠 18328
##红 18329
##纣 18330
##纤 18331
##约 18332
##级 18333
##纨 18334
##纪 18335
##纫 18336
##纬 18337
##纭 18338
##纯 18339
##纰 18340
##纱 18341
##纲 18342
##纳 18343
##纵 18344
##纶 18345
##纷 18346
##纸 18347
##纹 18348
##纺 18349
##纽 18350
##纾 18351
##线 18352
##绀 18353
##练 18354
##组 18355
##绅 18356
##细 18357
##织 18358
##终 18359
##绊 18360
##绍 18361
##绎 18362
##经 18363
##绑 18364
##绒 18365
##结 18366
##绔 18367
##绕 18368
##绘 18369
##给 18370
##绚 18371
##绛 18372
##络 18373
##绝 18374
##绞 18375
##统 18376
##绡 18377
##绢 18378
##绣 18379
##绥 18380
##绦 18381
##继 18382
##绩 18383
##绪 18384
##绫 18385
##续 18386
##绮 18387
##绯 18388
##绰 18389
##绳 18390
##维 18391
##绵 18392
##绶 18393
##绷 18394
##绸 18395
##绻 18396
##综 18397
##绽 18398
##绾 18399
##绿 18400
##缀 18401
##缄 18402
##缅 18403
##缆 18404
##缇 18405
##缈 18406
##缉 18407
##缎 18408
##缓 18409
##缔 18410
##缕 18411
##编 18412
##缘 18413
##缙 18414
##缚 18415
##缜 18416
##缝 18417
##缠 18418
##缢 18419
##缤 18420
##缥 18421
##缨 18422
##缩 18423
##缪 18424
##缭 18425
##缮 18426
##缰 18427
##缱 18428
##缴 18429
##缸 18430
##缺 18431
##缽 18432
##罂 18433
##罄 18434
##罌 18435
##罐 18436
##网 18437
##罔 18438
##罕 18439
##罗 18440
##罚 18441
##罡 18442
##罢 18443
##罩 18444
##罪 18445
##置 18446
##罰 18447
##署 18448
##罵 18449
##罷 18450
##罹 18451
##羁 18452
##羅 18453
##羈 18454
##羊 18455
##羌 18456
##美 18457
##羔 18458
##羚 18459
##羞 18460
##羟 18461
##羡 18462
##羣 18463
##群 18464
##羥 18465
##羧 18466
##羨 18467
##義 18468
##羯 18469
##羲 18470
##羸 18471
##羹 18472
##羽 18473
##羿 18474
##翁 18475
##翅 18476
##翊 18477
##翌 18478
##翎 18479
##習 18480
##翔 18481
##翘 18482
##翟 18483
##翠 18484
##翡 18485
##翦 18486
##翩 18487
##翰 18488
##翱 18489
##翳 18490
##翹 18491
##翻 18492
##翼 18493
##耀 18494
##老 18495
##考 18496
##耄 18497
##者 18498
##耆 18499
##耋 18500
##而 18501
##耍 18502
##耐 18503
##耒 18504
##耕 18505
##耗 18506
##耘 18507
##耙 18508
##耦 18509
##耨 18510
##耳 18511
##耶 18512
##耷 18513
##耸 18514
##耻 18515
##耽 18516
##耿 18517
##聂 18518
##聆 18519
##聊 18520
##聋 18521
##职 18522
##聒 18523
##联 18524
##聖 18525
##聘 18526
##聚 18527
##聞 18528
##聪 18529
##聯 18530
##聰 18531
##聲 18532
##聳 18533
##聴 18534
##聶 18535
##職 18536
##聽 18537
##聾 18538
##聿 18539
##肃 18540
##肄 18541
##肅 18542
##肆 18543
##肇 18544
##肉 18545
##肋 18546
##肌 18547
##肏 18548
##肓 18549
##肖 18550
##肘 18551
##肚 18552
##肛 18553
##肝 18554
##肠 18555
##股 18556
##肢 18557
##肤 18558
##肥 18559
##肩 18560
##肪 18561
##肮 18562
##肯 18563
##肱 18564
##育 18565
##肴 18566
##肺 18567
##肽 18568
##肾 18569
##肿 18570
##胀 18571
##胁 18572
##胃 18573
##胄 18574
##胆 18575
##背 18576
##胍 18577
##胎 18578
##胖 18579
##胚 18580
##胛 18581
##胜 18582
##胝 18583
##胞 18584
##胡 18585
##胤 18586
##胥 18587
##胧 18588
##胫 18589
##胭 18590
##胯 18591
##胰 18592
##胱 18593
##胳 18594
##胴 18595
##胶 18596
##胸 18597
##胺 18598
##能 18599
##脂 18600
##脅 18601
##脆 18602
##脇 18603
##脈 18604
##脉 18605
##脊 18606
##脍 18607
##脏 18608
##脐 18609
##脑 18610
##脓 18611
##脖 18612
##脘 18613
##脚 18614
##脛 18615
##脣 18616
##脩 18617
##脫 18618
##脯 18619
##脱 18620
##脲 18621
##脳 18622
##脸 18623
##脹 18624
##脾 18625
##腆 18626
##腈 18627
##腊 18628
##腋 18629
##腌 18630
##腎 18631
##腐 18632
##腑 18633
##腓 18634
##腔 18635
##腕 18636
##腥 18637
##腦 18638
##腩 18639
##腫 18640
##腭 18641
##腮 18642
##腰 18643
##腱 18644
##腳 18645
##腴 18646
##腸 18647
##腹 18648
##腺 18649
##腻 18650
##腼 18651
##腾 18652
##腿 18653
##膀 18654
##膈 18655
##膊 18656
##膏 18657
##膑 18658
##膘 18659
##膚 18660
##膛 18661
##膜 18662
##膝 18663
##膠 18664
##膦 18665
##膨 18666
##膩 18667
##膳 18668
##膺 18669
##膻 18670
##膽 18671
##膾 18672
##膿 18673
##臀 18674
##臂 18675
##臃 18676
##臆 18677
##臉 18678
##臊 18679
##臍 18680
##臓 18681
##臘 18682
##臟 18683
##臣 18684
##臥 18685
##臧 18686
##臨 18687
##自 18688
##臬 18689
##臭 18690
##至 18691
##致 18692
##臺 18693
##臻 18694
##臼 18695
##臾 18696
##舀 18697
##舂 18698
##舅 18699
##舆 18700
##與 18701
##興 18702
##舉 18703
##舊 18704
##舌 18705
##舍 18706
##舎 18707
##舐 18708
##舒 18709
##舔 18710
##舖 18711
##舗 18712
##舛 18713
##舜 18714
##舞 18715
##舟 18716
##航 18717
##舫 18718
##般 18719
##舰 18720
##舱 18721
##舵 18722
##舶 18723
##舷 18724
##舸 18725
##船 18726
##舺 18727
##舾 18728
##艇 18729
##艋 18730
##艘 18731
##艙 18732
##艦 18733
##艮 18734
##良 18735
##艰 18736
##艱 18737
##色 18738
##艳 18739
##艷 18740
##艹 18741
##艺 18742
##艾 18743
##节 18744
##芃 18745
##芈 18746
##芊 18747
##芋 18748
##芍 18749
##芎 18750
##芒 18751
##芙 18752
##芜 18753
##芝 18754
##芡 18755
##芥 18756
##芦 18757
##芩 18758
##芪 18759
##芫 18760
##芬 18761
##芭 18762
##芮 18763
##芯 18764
##花 18765
##芳 18766
##芷 18767
##芸 18768
##芹 18769
##芻 18770
##芽 18771
##芾 18772
##苁 18773
##苄 18774
##苇 18775
##苋 18776
##苍 18777
##苏 18778
##苑 18779
##苒 18780
##苓 18781
##苔 18782
##苕 18783
##苗 18784
##苛 18785
##苜 18786
##苞 18787
##苟 18788
##苡 18789
##苣 18790
##若 18791
##苦 18792
##苫 18793
##苯 18794
##英 18795
##苷 18796
##苹 18797
##苻 18798
##茁 18799
##茂 18800
##范 18801
##茄 18802
##茅 18803
##茉 18804
##茎 18805
##茏 18806
##茗 18807
##茜 18808
##茧 18809
##茨 18810
##茫 18811
##茬 18812
##茭 18813
##茯 18814
##茱 18815
##茲 18816
##茴 18817
##茵 18818
##茶 18819
##茸 18820
##茹 18821
##茼 18822
##荀 18823
##荃 18824
##荆 18825
##草 18826
##荊 18827
##荏 18828
##荐 18829
##荒 18830
##荔 18831
##荖 18832
##荘 18833
##荚 18834
##荞 18835
##荟 18836
##荠 18837
##荡 18838
##荣 18839
##荤 18840
##荥 18841
##荧 18842
##荨 18843
##荪 18844
##荫 18845
##药 18846
##荳 18847
##荷 18848
##荸 18849
##荻 18850
##荼 18851
##荽 18852
##莅 18853
##莆 18854
##莉 18855
##莊 18856
##莎 18857
##莒 18858
##莓 18859
##莖 18860
##莘 18861
##莞 18862
##莠 18863
##莢 18864
##莧 18865
##莪 18866
##莫 18867
##莱 18868
##莲 18869
##莴 18870
##获 18871
##莹 18872
##莺 18873
##莽 18874
##莿 18875
##菀 18876
##菁 18877
##菅 18878
##菇 18879
##菈 18880
##菊 18881
##菌 18882
##菏 18883
##菓 18884
##菖 18885
##菘 18886
##菜 18887
##菟 18888
##菠 18889
##菡 18890
##菩 18891
##華 18892
##菱 18893
##菲 18894
##菸 18895
##菽 18896
##萁 18897
##萃 18898
##萄 18899
##萊 18900
##萋 18901
##萌 18902
##萍 18903
##萎 18904
##萘 18905
##萝 18906
##萤 18907
##营 18908
##萦 18909
##萧 18910
##萨 18911
##萩 18912
##萬 18913
##萱 18914
##萵 18915
##萸 18916
##萼 18917
##落 18918
##葆 18919
##葉 18920
##著 18921
##葚 18922
##葛 18923
##葡 18924
##董 18925
##葦 18926
##葩 18927
##葫 18928
##葬 18929
##葭 18930
##葯 18931
##葱 18932
##葳 18933
##葵 18934
##葷 18935
##葺 18936
##蒂 18937
##蒋 18938
##蒐 18939
##蒔 18940
##蒙 18941
##蒜 18942
##蒞 18943
##蒟 18944
##蒡 18945
##蒨 18946
##蒲 18947
##蒸 18948
##蒹 18949
##蒻 18950
##蒼 18951
##蒿 18952
##蓁 18953
##蓄 18954
##蓆 18955
##蓉 18956
##蓋 18957
##蓑 18958
##蓓 18959
##蓖 18960
##蓝 18961
##蓟 18962
##蓦 18963
##蓬 18964
##蓮 18965
##蓼 18966
##蓿 18967
##蔑 18968
##蔓 18969
##蔔 18970
##蔗 18971
##蔘 18972
##蔚 18973
##蔡 18974
##蔣 18975
##蔥 18976
##蔫 18977
##蔬 18978
##蔭 18979
##蔵 18980
##蔷 18981
##蔺 18982
##蔻 18983
##蔼 18984
##蔽 18985
##蕁 18986
##蕃 18987
##蕈 18988
##蕉 18989
##蕊 18990
##蕎 18991
##蕙 18992
##蕤 18993
##蕨 18994
##蕩 18995
##蕪 18996
##蕭 18997
##蕲 18998
##蕴 18999
##蕻 19000
##蕾 19001
##薄 19002
##薅 19003
##薇 19004
##薈 19005
##薊 19006
##薏 19007
##薑 19008
##薔 19009
##薙 19010
##薛 19011
##薦 19012
##薨 19013
##薩 19014
##薪 19015
##薬 19016
##薯 19017
##薰 19018
##薹 19019
##藉 19020
##藍 19021
##藏 19022
##藐 19023
##藓 19024
##藕 19025
##藜 19026
##藝 19027
##藤 19028
##藥 19029
##藩 19030
##藹 19031
##藻 19032
##藿 19033
##蘆 19034
##蘇 19035
##蘊 19036
##蘋 19037
##蘑 19038
##蘚 19039
##蘭 19040
##蘸 19041
##蘼 19042
##蘿 19043
##虎 19044
##虏 19045
##虐 19046
##虑 19047
##虔 19048
##處 19049
##虚 19050
##虛 19051
##虜 19052
##虞 19053
##號 19054
##虢 19055
##虧 19056
##虫 19057
##虬 19058
##虱 19059
##虹 19060
##虻 19061
##虽 19062
##虾 19063
##蚀 19064
##蚁 19065
##蚂 19066
##蚊 19067
##蚌 19068
##蚓 19069
##蚕 19070
##蚜 19071
##蚝 19072
##蚣 19073
##蚤 19074
##蚩 19075
##蚪 19076
##蚯 19077
##蚱 19078
##蚵 19079
##蛀 19080
##蛆 19081
##蛇 19082
##蛊 19083
##蛋 19084
##蛎 19085
##蛐 19086
##蛔 19087
##蛙 19088
##蛛 19089
##蛟 19090
##蛤 19091
##蛭 19092
##蛮 19093
##蛰 19094
##蛳 19095
##蛹 19096
##蛻 19097
##蛾 19098
##蜀 19099
##蜂 19100
##蜃 19101
##蜆 19102
##蜇 19103
##蜈 19104
##蜊 19105
##蜍 19106
##蜒 19107
##蜓 19108
##蜕 19109
##蜗 19110
##蜘 19111
##蜚 19112
##蜜 19113
##蜡 19114
##蜢 19115
##蜥 19116
##蜱 19117
##蜴 19118
##蜷 19119
##蜻 19120
##蜿 19121
##蝇 19122
##蝈 19123
##蝉 19124
##蝌 19125
##蝎 19126
##蝕 19127
##蝗 19128
##蝙 19129
##蝟 19130
##蝠 19131
##蝦 19132
##蝨 19133
##蝴 19134
##蝶 19135
##蝸 19136
##蝼 19137
##螂 19138
##螃 19139
##融 19140
##螞 19141
##螢 19142
##螨 19143
##螯 19144
##螳 19145
##螺 19146
##蟀 19147
##蟄 19148
##蟆 19149
##蟋 19150
##蟎 19151
##蟑 19152
##蟒 19153
##蟠 19154
##蟬 19155
##蟲 19156
##蟹 19157
##蟻 19158
##蟾 19159
##蠅 19160
##蠍 19161
##蠔 19162
##蠕 19163
##蠛 19164
##蠟 19165
##蠡 19166
##蠢 19167
##蠣 19168
##蠱 19169
##蠶 19170
##蠹 19171
##蠻 19172
##血 19173
##衄 19174
##衅 19175
##衆 19176
##行 19177
##衍 19178
##術 19179
##衔 19180
##街 19181
##衙 19182
##衛 19183
##衝 19184
##衞 19185
##衡 19186
##衢 19187
##衣 19188
##补 19189
##表 19190
##衩 19191
##衫 19192
##衬 19193
##衮 19194
##衰 19195
##衲 19196
##衷 19197
##衹 19198
##衾 19199
##衿 19200
##袁 19201
##袂 19202
##袄 19203
##袅 19204
##袈 19205
##袋 19206
##袍 19207
##袒 19208
##袖 19209
##袜 19210
##袞 19211
##袤 19212
##袪 19213
##被 19214
##袭 19215
##袱 19216
##裁 19217
##裂 19218
##装 19219
##裆 19220
##裊 19221
##裏 19222
##裔 19223
##裕 19224
##裘 19225
##裙 19226
##補 19227
##裝 19228
##裟 19229
##裡 19230
##裤 19231
##裨 19232
##裱 19233
##裳 19234
##裴 19235
##裸 19236
##裹 19237
##製 19238
##裾 19239
##褂 19240
##複 19241
##褐 19242
##褒 19243
##褓 19244
##褔 19245
##褚 19246
##褥 19247
##褪 19248
##褫 19249
##褲 19250
##褶 19251
##褻 19252
##襁 19253
##襄 19254
##襟 19255
##襠 19256
##襪 19257
##襬 19258
##襯 19259
##襲 19260
##西 19261
##要 19262
##覃 19263
##覆 19264
##覇 19265
##見 19266
##規 19267
##覓 19268
##視 19269
##覚 19270
##覦 19271
##覧 19272
##親 19273
##覬 19274
##観 19275
##覷 19276
##覺 19277
##覽 19278
##觀 19279
##见 19280
##观 19281
##规 19282
##觅 19283
##视 19284
##览 19285
##觉 19286
##觊 19287
##觎 19288
##觐 19289
##觑 19290
##角 19291
##觞 19292
##解 19293
##觥 19294
##触 19295
##觸 19296
##言 19297
##訂 19298
##計 19299
##訊 19300
##討 19301
##訓 19302
##訕 19303
##訖 19304
##託 19305
##記 19306
##訛 19307
##訝 19308
##訟 19309
##訣 19310
##訥 19311
##訪 19312
##設 19313
##許 19314
##訳 19315
##訴 19316
##訶 19317
##診 19318
##註 19319
##証 19320
##詆 19321
##詐 19322
##詔 19323
##評 19324
##詛 19325
##詞 19326
##詠 19327
##詡 19328
##詢 19329
##詣 19330
##試 19331
##詩 19332
##詫 19333
##詬 19334
##詭 19335
##詮 19336
##詰 19337
##話 19338
##該 19339
##詳 19340
##詹 19341
##詼 19342
##誅 19343
##誇 19344
##誉 19345
##誌 19346
##認 19347
##誓 19348
##誕 19349
##誘 19350
##語 19351
##誠 19352
##誡 19353
##誣 19354
##誤 19355
##誥 19356
##誦 19357
##誨 19358
##說 19359
##説 19360
##読 19361
##誰 19362
##課 19363
##誹 19364
##誼 19365
##調 19366
##諄 19367
##談 19368
##請 19369
##諏 19370
##諒 19371
##論 19372
##諗 19373
##諜 19374
##諡 19375
##諦 19376
##諧 19377
##諫 19378
##諭 19379
##諮 19380
##諱 19381
##諳 19382
##諷 19383
##諸 19384
##諺 19385
##諾 19386
##謀 19387
##謁 19388
##謂 19389
##謄 19390
##謊 19391
##謎 19392
##謐 19393
##謔 19394
##謗 19395
##謙 19396
##講 19397
##謝 19398
##謠 19399
##謨 19400
##謬 19401
##謹 19402
##謾 19403
##譁 19404
##證 19405
##譎 19406
##譏 19407
##識 19408
##譙 19409
##譚 19410
##譜 19411
##警 19412
##譬 19413
##譯 19414
##議 19415
##譲 19416
##譴 19417
##護 19418
##譽 19419
##讀 19420
##變 19421
##讓 19422
##讚 19423
##讞 19424
##计 19425
##订 19426
##认 19427
##讥 19428
##讧 19429
##讨 19430
##让 19431
##讪 19432
##讫 19433
##训 19434
##议 19435
##讯 19436
##记 19437
##讲 19438
##讳 19439
##讴 19440
##讶 19441
##讷 19442
##许 19443
##讹 19444
##论 19445
##讼 19446
##讽 19447
##设 19448
##访 19449
##诀 19450
##证 19451
##诃 19452
##评 19453
##诅 19454
##识 19455
##诈 19456
##诉 19457
##诊 19458
##诋 19459
##词 19460
##诏 19461
##译 19462
##试 19463
##诗 19464
##诘 19465
##诙 19466
##诚 19467
##诛 19468
##话 19469
##诞 19470
##诟 19471
##诠 19472
##诡 19473
##询 19474
##诣 19475
##诤 19476
##该 19477
##详 19478
##诧 19479
##诩 19480
##诫 19481
##诬 19482
##语 19483
##误 19484
##诰 19485
##诱 19486
##诲 19487
##说 19488
##诵 19489
##诶 19490
##请 19491
##诸 19492
##诺 19493
##读 19494
##诽 19495
##课 19496
##诿 19497
##谀 19498
##谁 19499
##调 19500
##谄 19501
##谅 19502
##谆 19503
##谈 19504
##谊 19505
##谋 19506
##谌 19507
##谍 19508
##谎 19509
##谏 19510
##谐 19511
##谑 19512
##谒 19513
##谓 19514
##谔 19515
##谕 19516
##谗 19517
##谘 19518
##谙 19519
##谚 19520
##谛 19521
##谜 19522
##谟 19523
##谢 19524
##谣 19525
##谤 19526
##谥 19527
##谦 19528
##谧 19529
##谨 19530
##谩 19531
##谪 19532
##谬 19533
##谭 19534
##谯 19535
##谱 19536
##谲 19537
##谴 19538
##谶 19539
##谷 19540
##豁 19541
##豆 19542
##豇 19543
##豈 19544
##豉 19545
##豊 19546
##豌 19547
##豎 19548
##豐 19549
##豔 19550
##豚 19551
##象 19552
##豢 19553
##豪 19554
##豫 19555
##豬 19556
##豹 19557
##豺 19558
##貂 19559
##貅 19560
##貌 19561
##貓 19562
##貔 19563
##貘 19564
##貝 19565
##貞 19566
##負 19567
##財 19568
##貢 19569
##貧 19570
##貨 19571
##販 19572
##貪 19573
##貫 19574
##責 19575
##貯 19576
##貰 19577
##貳 19578
##貴 19579
##貶 19580
##買 19581
##貸 19582
##費 19583
##貼 19584
##貽 19585
##貿 19586
##賀 19587
##賁 19588
##賂 19589
##賃 19590
##賄 19591
##資 19592
##賈 19593
##賊 19594
##賑 19595
##賓 19596
##賜 19597
##賞 19598
##賠 19599
##賡 19600
##賢 19601
##賣 19602
##賤 19603
##賦 19604
##質 19605
##賬 19606
##賭 19607
##賴 19608
##賺 19609
##購 19610
##賽 19611
##贅 19612
##贈 19613
##贊 19614
##贍 19615
##贏 19616
##贓 19617
##贖 19618
##贛 19619
##贝 19620
##贞 19621
##负 19622
##贡 19623
##财 19624
##责 19625
##贤 19626
##败 19627
##账 19628
##货 19629
##质 19630
##贩 19631
##贪 19632
##贫 19633
##贬 19634
##购 19635
##贮 19636
##贯 19637
##贰 19638
##贱 19639
##贲 19640
##贴 19641
##贵 19642
##贷 19643
##贸 19644
##费 19645
##贺 19646
##贻 19647
##贼 19648
##贾 19649
##贿 19650
##赁 19651
##赂 19652
##赃 19653
##资 19654
##赅 19655
##赈 19656
##赊 19657
##赋 19658
##赌 19659
##赎 19660
##赏 19661
##赐 19662
##赓 19663
##赔 19664
##赖 19665
##赘 19666
##赚 19667
##赛 19668
##赝 19669
##赞 19670
##赠 19671
##赡 19672
##赢 19673
##赣 19674
##赤 19675
##赦 19676
##赧 19677
##赫 19678
##赭 19679
##走 19680
##赳 19681
##赴 19682
##赵 19683
##赶 19684
##起 19685
##趁 19686
##超 19687
##越 19688
##趋 19689
##趕 19690
##趙 19691
##趟 19692
##趣 19693
##趨 19694
##足 19695
##趴 19696
##趵 19697
##趸 19698
##趺 19699
##趾 19700
##跃 19701
##跄 19702
##跆 19703
##跋 19704
##跌 19705
##跎 19706
##跑 19707
##跖 19708
##跚 19709
##跛 19710
##距 19711
##跟 19712
##跡 19713
##跤 19714
##跨 19715
##跩 19716
##跪 19717
##路 19718
##跳 19719
##践 19720
##跷 19721
##跹 19722
##跺 19723
##跻 19724
##踉 19725
##踊 19726
##踌 19727
##踏 19728
##踐 19729
##踝 19730
##踞 19731
##踟 19732
##踢 19733
##踩 19734
##踪 19735
##踮 19736
##踱 19737
##踴 19738
##踵 19739
##踹 19740
##蹂 19741
##蹄 19742
##蹇 19743
##蹈 19744
##蹉 19745
##蹊 19746
##蹋 19747
##蹑 19748
##蹒 19749
##蹙 19750
##蹟 19751
##蹣 19752
##蹤 19753
##蹦 19754
##蹩 19755
##蹬 19756
##蹭 19757
##蹲 19758
##蹴 19759
##蹶 19760
##蹺 19761
##蹼 19762
##蹿 19763
##躁 19764
##躇 19765
##躉 19766
##躊 19767
##躋 19768
##躍 19769
##躏 19770
##躪 19771
##身 19772
##躬 19773
##躯 19774
##躲 19775
##躺 19776
##軀 19777
##車 19778
##軋 19779
##軌 19780
##軍 19781
##軒 19782
##軟 19783
##転 19784
##軸 19785
##軼 19786
##軽 19787
##軾 19788
##較 19789
##載 19790
##輒 19791
##輓 19792
##輔 19793
##輕 19794
##輛 19795
##輝 19796
##輟 19797
##輩 19798
##輪 19799
##輯 19800
##輸 19801
##輻 19802
##輾 19803
##輿 19804
##轄 19805
##轅 19806
##轆 19807
##轉 19808
##轍 19809
##轎 19810
##轟 19811
##车 19812
##轧 19813
##轨 19814
##轩 19815
##转 19816
##轭 19817
##轮 19818
##软 19819
##轰 19820
##轲 19821
##轴 19822
##轶 19823
##轻 19824
##轼 19825
##载 19826
##轿 19827
##较 19828
##辄 19829
##辅 19830
##辆 19831
##辇 19832
##辈 19833
##辉 19834
##辊 19835
##辍 19836
##辐 19837
##辑 19838
##输 19839
##辕 19840
##辖 19841
##辗 19842
##辘 19843
##辙 19844
##辛 19845
##辜 19846
##辞 19847
##辟 19848
##辣 19849
##辦 19850
##辨 19851
##辩 19852
##辫 19853
##辭 19854
##辮 19855
##辯 19856
##辰 19857
##辱 19858
##農 19859
##边 19860
##辺 19861
##辻 19862
##込 19863
##辽 19864
##达 19865
##迁 19866
##迂 19867
##迄 19868
##迅 19869
##过 19870
##迈 19871
##迎 19872
##运 19873
##近 19874
##返 19875
##还 19876
##这 19877
##进 19878
##远 19879
##违 19880
##连 19881
##迟 19882
##迢 19883
##迤 19884
##迥 19885
##迦 19886
##迩 19887
##迪 19888
##迫 19889
##迭 19890
##述 19891
##迴 19892
##迷 19893
##迸 19894
##迹 19895
##迺 19896
##追 19897
##退 19898
##送 19899
##适 19900
##逃 19901
##逅 19902
##逆 19903
##选 19904
##逊 19905
##逍 19906
##透 19907
##逐 19908
##递 19909
##途 19910
##逕 19911
##逗 19912
##這 19913
##通 19914
##逛 19915
##逝 19916
##逞 19917
##速 19918
##造 19919
##逢 19920
##連 19921
##逮 19922
##週 19923
##進 19924
##逵 19925
##逶 19926
##逸 19927
##逻 19928
##逼 19929
##逾 19930
##遁 19931
##遂 19932
##遅 19933
##遇 19934
##遊 19935
##運 19936
##遍 19937
##過 19938
##遏 19939
##遐 19940
##遑 19941
##遒 19942
##道 19943
##達 19944
##違 19945
##遗 19946
##遙 19947
##遛 19948
##遜 19949
##遞 19950
##遠 19951
##遢 19952
##遣 19953
##遥 19954
##遨 19955
##適 19956
##遭 19957
##遮 19958
##遲 19959
##遴 19960
##遵 19961
##遶 19962
##遷 19963
##選 19964
##遺 19965
##遼 19966
##遽 19967
##避 19968
##邀 19969
##邁 19970
##邂 19971
##邃 19972
##還 19973
##邇 19974
##邈 19975
##邊 19976
##邋 19977
##邏 19978
##邑 19979
##邓 19980
##邕 19981
##邛 19982
##邝 19983
##邢 19984
##那 19985
##邦 19986
##邨 19987
##邪 19988
##邬 19989
##邮 19990
##邯 19991
##邰 19992
##邱 19993
##邳 19994
##邵 19995
##邸 19996
##邹 19997
##邺 19998
##邻 19999
##郁 20000
##郅 20001
##郊 20002
##郎 20003
##郑 20004
##郜 20005
##郝 20006
##郡 20007
##郢 20008
##郤 20009
##郦 20010
##郧 20011
##部 20012
##郫 20013
##郭 20014
##郴 20015
##郵 20016
##郷 20017
##郸 20018
##都 20019
##鄂 20020
##鄉 20021
##鄒 20022
##鄔 20023
##鄙 20024
##鄞 20025
##鄢 20026
##鄧 20027
##鄭 20028
##鄰 20029
##鄱 20030
##鄲 20031
##鄺 20032
##酉 20033
##酊 20034
##酋 20035
##酌 20036
##配 20037
##酐 20038
##酒 20039
##酗 20040
##酚 20041
##酝 20042
##酢 20043
##酣 20044
##酥 20045
##酩 20046
##酪 20047
##酬 20048
##酮 20049
##酯 20050
##酰 20051
##酱 20052
##酵 20053
##酶 20054
##酷 20055
##酸 20056
##酿 20057
##醃 20058
##醇 20059
##醉 20060
##醋 20061
##醍 20062
##醐 20063
##醒 20064
##醚 20065
##醛 20066
##醜 20067
##醞 20068
##醣 20069
##醪 20070
##醫 20071
##醬 20072
##醮 20073
##醯 20074
##醴 20075
##醺 20076
##釀 20077
##釁 20078
##采 20079
##釉 20080
##释 20081
##釋 20082
##里 20083
##重 20084
##野 20085
##量 20086
##釐 20087
##金 20088
##釗 20089
##釘 20090
##釜 20091
##針 20092
##釣 20093
##釦 20094
##釧 20095
##釵 20096
##鈀 20097
##鈉 20098
##鈍 20099
##鈎 20100
##鈔 20101
##鈕 20102
##鈞 20103
##鈣 20104
##鈦 20105
##鈪 20106
##鈴 20107
##鈺 20108
##鈾 20109
##鉀 20110
##鉄 20111
##鉅 20112
##鉉 20113
##鉑 20114
##鉗 20115
##鉚 20116
##鉛 20117
##鉤 20118
##鉴 20119
##鉻 20120
##銀 20121
##銃 20122
##銅 20123
##銑 20124
##銓 20125
##銖 20126
##銘 20127
##銜 20128
##銬 20129
##銭 20130
##銮 20131
##銳 20132
##銷 20133
##銹 20134
##鋁 20135
##鋅 20136
##鋒 20137
##鋤 20138
##鋪 20139
##鋰 20140
##鋸 20141
##鋼 20142
##錄 20143
##錐 20144
##錘 20145
##錚 20146
##錠 20147
##錢 20148
##錦 20149
##錨 20150
##錫 20151
##錮 20152
##錯 20153
##録 20154
##錳 20155
##錶 20156
##鍊 20157
##鍋 20158
##鍍 20159
##鍛 20160
##鍥 20161
##鍰 20162
##鍵 20163
##鍺 20164
##鍾 20165
##鎂 20166
##鎊 20167
##鎌 20168
##鎏 20169
##鎔 20170
##鎖 20171
##鎗 20172
##鎚 20173
##鎧 20174
##鎬 20175
##鎮 20176
##鎳 20177
##鏈 20178
##鏖 20179
##鏗 20180
##鏘 20181
##鏞 20182
##鏟 20183
##鏡 20184
##鏢 20185
##鏤 20186
##鏽 20187
##鐘 20188
##鐮 20189
##鐲 20190
##鐳 20191
##鐵 20192
##鐸 20193
##鐺 20194
##鑄 20195
##鑊 20196
##鑑 20197
##鑒 20198
##鑣 20199
##鑫 20200
##鑰 20201
##鑲 20202
##鑼 20203
##鑽 20204
##鑾 20205
##鑿 20206
##针 20207
##钉 20208
##钊 20209
##钎 20210
##钏 20211
##钒 20212
##钓 20213
##钗 20214
##钙 20215
##钛 20216
##钜 20217
##钝 20218
##钞 20219
##钟 20220
##钠 20221
##钡 20222
##钢 20223
##钣 20224
##钤 20225
##钥 20226
##钦 20227
##钧 20228
##钨 20229
##钩 20230
##钮 20231
##钯 20232
##钰 20233
##钱 20234
##钳 20235
##钴 20236
##钵 20237
##钺 20238
##钻 20239
##钼 20240
##钾 20241
##钿 20242
##铀 20243
##铁 20244
##铂 20245
##铃 20246
##铄 20247
##铅 20248
##铆 20249
##铉 20250
##铎 20251
##铐 20252
##铛 20253
##铜 20254
##铝 20255
##铠 20256
##铡 20257
##铢 20258
##铣 20259
##铤 20260
##铨 20261
##铩 20262
##铬 20263
##铭 20264
##铮 20265
##铰 20266
##铲 20267
##铵 20268
##银 20269
##铸 20270
##铺 20271
##链 20272
##铿 20273
##销 20274
##锁 20275
##锂 20276
##锄 20277
##锅 20278
##锆 20279
##锈 20280
##锉 20281
##锋 20282
##锌 20283
##锏 20284
##锐 20285
##锑 20286
##错 20287
##锚 20288
##锟 20289
##锡 20290
##锢 20291
##锣 20292
##锤 20293
##锥 20294
##锦 20295
##锭 20296
##键 20297
##锯 20298
##锰 20299
##锲 20300
##锵 20301
##锹 20302
##锺 20303
##锻 20304
##镀 20305
##镁 20306
##镂 20307
##镇 20308
##镉 20309
##镌 20310
##镍 20311
##镐 20312
##镑 20313
##镕 20314
##镖 20315
##镗 20316
##镛 20317
##镜 20318
##镣 20319
##镭 20320
##镯 20321
##镰 20322
##镳 20323
##镶 20324
##長 20325
##长 20326
##門 20327
##閃 20328
##閉 20329
##開 20330
##閎 20331
##閏 20332
##閑 20333
##閒 20334
##間 20335
##閔 20336
##閘 20337
##閡 20338
##関 20339
##閣 20340
##閥 20341
##閨 20342
##閩 20343
##閱 20344
##閲 20345
##閹 20346
##閻 20347
##閾 20348
##闆 20349
##闇 20350
##闊 20351
##闌 20352
##闍 20353
##闔 20354
##闕 20355
##闖 20356
##闘 20357
##關 20358
##闡 20359
##闢 20360
##门 20361
##闪 20362
##闫 20363
##闭 20364
##问 20365
##闯 20366
##闰 20367
##闲 20368
##间 20369
##闵 20370
##闷 20371
##闸 20372
##闹 20373
##闺 20374
##闻 20375
##闽 20376
##闾 20377
##阀 20378
##阁 20379
##阂 20380
##阅 20381
##阆 20382
##阇 20383
##阈 20384
##阉 20385
##阎 20386
##阐 20387
##阑 20388
##阔 20389
##阕 20390
##阖 20391
##阙 20392
##阚 20393
##阜 20394
##队 20395
##阡 20396
##阪 20397
##阮 20398
##阱 20399
##防 20400
##阳 20401
##阴 20402
##阵 20403
##阶 20404
##阻 20405
##阿 20406
##陀 20407
##陂 20408
##附 20409
##际 20410
##陆 20411
##陇 20412
##陈 20413
##陋 20414
##陌 20415
##降 20416
##限 20417
##陕 20418
##陛 20419
##陝 20420
##陞 20421
##陟 20422
##陡 20423
##院 20424
##陣 20425
##除 20426
##陨 20427
##险 20428
##陪 20429
##陰 20430
##陲 20431
##陳 20432
##陵 20433
##陶 20434
##陷 20435
##陸 20436
##険 20437
##陽 20438
##隅 20439
##隆 20440
##隈 20441
##隊 20442
##隋 20443
##隍 20444
##階 20445
##随 20446
##隐 20447
##隔 20448
##隕 20449
##隘 20450
##隙 20451
##際 20452
##障 20453
##隠 20454
##隣 20455
##隧 20456
##隨 20457
##險 20458
##隱 20459
##隴 20460
##隶 20461
##隸 20462
##隻 20463
##隼 20464
##隽 20465
##难 20466
##雀 20467
##雁 20468
##雄 20469
##雅 20470
##集 20471
##雇 20472
##雉 20473
##雋 20474
##雌 20475
##雍 20476
##雎 20477
##雏 20478
##雑 20479
##雒 20480
##雕 20481
##雖 20482
##雙 20483
##雛 20484
##雜 20485
##雞 20486
##離 20487
##難 20488
##雨 20489
##雪 20490
##雯 20491
##雰 20492
##雲 20493
##雳 20494
##零 20495
##雷 20496
##雹 20497
##電 20498
##雾 20499
##需 20500
##霁 20501
##霄 20502
##霆 20503
##震 20504
##霈 20505
##霉 20506
##霊 20507
##霍 20508
##霎 20509
##霏 20510
##霑 20511
##霓 20512
##霖 20513
##霜 20514
##霞 20515
##霧 20516
##霭 20517
##霰 20518
##露 20519
##霸 20520
##霹 20521
##霽 20522
##霾 20523
##靂 20524
##靄 20525
##靈 20526
##青 20527
##靓 20528
##靖 20529
##静 20530
##靚 20531
##靛 20532
##靜 20533
##非 20534
##靠 20535
##靡 20536
##面 20537
##靥 20538
##靦 20539
##革 20540
##靳 20541
##靴 20542
##靶 20543
##靼 20544
##鞅 20545
##鞋 20546
##鞍 20547
##鞏 20548
##鞑 20549
##鞘 20550
##鞠 20551
##鞣 20552
##鞦 20553
##鞭 20554
##韆 20555
##韋 20556
##韌 20557
##韓 20558
##韜 20559
##韦 20560
##韧 20561
##韩 20562
##韬 20563
##韭 20564
##音 20565
##韵 20566
##韶 20567
##韻 20568
##響 20569
##頁 20570
##頂 20571
##頃 20572
##項 20573
##順 20574
##須 20575
##頌 20576
##預 20577
##頑 20578
##頒 20579
##頓 20580
##頗 20581
##領 20582
##頜 20583
##頡 20584
##頤 20585
##頫 20586
##頭 20587
##頰 20588
##頷 20589
##頸 20590
##頹 20591
##頻 20592
##頼 20593
##顆 20594
##題 20595
##額 20596
##顎 20597
##顏 20598
##顔 20599
##願 20600
##顛 20601
##類 20602
##顧 20603
##顫 20604
##顯 20605
##顱 20606
##顴 20607
##页 20608
##顶 20609
##顷 20610
##项 20611
##顺 20612
##须 20613
##顼 20614
##顽 20615
##顾 20616
##顿 20617
##颁 20618
##颂 20619
##预 20620
##颅 20621
##领 20622
##颇 20623
##颈 20624
##颉 20625
##颊 20626
##颌 20627
##颍 20628
##颐 20629
##频 20630
##颓 20631
##颔 20632
##颖 20633
##颗 20634
##题 20635
##颚 20636
##颛 20637
##颜 20638
##额 20639
##颞 20640
##颠 20641
##颡 20642
##颢 20643
##颤 20644
##颦 20645
##颧 20646
##風 20647
##颯 20648
##颱 20649
##颳 20650
##颶 20651
##颼 20652
##飄 20653
##飆 20654
##风 20655
##飒 20656
##飓 20657
##飕 20658
##飘 20659
##飙 20660
##飚 20661
##飛 20662
##飞 20663
##食 20664
##飢 20665
##飨 20666
##飩 20667
##飪 20668
##飯 20669
##飲 20670
##飼 20671
##飽 20672
##飾 20673
##餃 20674
##餅 20675
##餉 20676
##養 20677
##餌 20678
##餐 20679
##餒 20680
##餓 20681
##餘 20682
##餚 20683
##餛 20684
##餞 20685
##餡 20686
##館 20687
##餮 20688
##餵 20689
##餾 20690
##饅 20691
##饈 20692
##饋 20693
##饌 20694
##饍 20695
##饑 20696
##饒 20697
##饕 20698
##饗 20699
##饞 20700
##饥 20701
##饨 20702
##饪 20703
##饬 20704
##饭 20705
##饮 20706
##饯 20707
##饰 20708
##饱 20709
##饲 20710
##饴 20711
##饵 20712
##饶 20713
##饷 20714
##饺 20715
##饼 20716
##饽 20717
##饿 20718
##馀 20719
##馁 20720
##馄 20721
##馅 20722
##馆 20723
##馈 20724
##馋 20725
##馍 20726
##馏 20727
##馒 20728
##馔 20729
##首 20730
##馗 20731
##香 20732
##馥 20733
##馨 20734
##馬 20735
##馭 20736
##馮 20737
##馳 20738
##馴 20739
##駁 20740
##駄 20741
##駅 20742
##駆 20743
##駐 20744
##駒 20745
##駕 20746
##駛 20747
##駝 20748
##駭 20749
##駱 20750
##駿 20751
##騁 20752
##騎 20753
##騏 20754
##験 20755
##騙 20756
##騨 20757
##騰 20758
##騷 20759
##驀 20760
##驅 20761
##驊 20762
##驍 20763
##驒 20764
##驕 20765
##驗 20766
##驚 20767
##驛 20768
##驟 20769
##驢 20770
##驥 20771
##马 20772
##驭 20773
##驮 20774
##驯 20775
##驰 20776
##驱 20777
##驳 20778
##驴 20779
##驶 20780
##驷 20781
##驸 20782
##驹 20783
##驻 20784
##驼 20785
##驾 20786
##驿 20787
##骁 20788
##骂 20789
##骄 20790
##骅 20791
##骆 20792
##骇 20793
##骈 20794
##骊 20795
##骋 20796
##验 20797
##骏 20798
##骐 20799
##骑 20800
##骗 20801
##骚 20802
##骛 20803
##骜 20804
##骞 20805
##骠 20806
##骡 20807
##骤 20808
##骥 20809
##骧 20810
##骨 20811
##骯 20812
##骰 20813
##骶 20814
##骷 20815
##骸 20816
##骼 20817
##髂 20818
##髅 20819
##髋 20820
##髏 20821
##髒 20822
##髓 20823
##體 20824
##髖 20825
##高 20826
##髦 20827
##髪 20828
##髮 20829
##髯 20830
##髻 20831
##鬃 20832
##鬆 20833
##鬍 20834
##鬓 20835
##鬚 20836
##鬟 20837
##鬢 20838
##鬣 20839
##鬥 20840
##鬧 20841
##鬱 20842
##鬼 20843
##魁 20844
##魂 20845
##魄 20846
##魅 20847
##魇 20848
##魍 20849
##魏 20850
##魔 20851
##魘 20852
##魚 20853
##魯 20854
##魷 20855
##鮑 20856
##鮨 20857
##鮪 20858
##鮭 20859
##鮮 20860
##鯉 20861
##鯊 20862
##鯖 20863
##鯛 20864
##鯨 20865
##鯰 20866
##鯽 20867
##鰍 20868
##鰓 20869
##鰭 20870
##鰲 20871
##鰻 20872
##鰾 20873
##鱈 20874
##鱉 20875
##鱔 20876
##鱗 20877
##鱷 20878
##鱸 20879
##鱼 20880
##鱿 20881
##鲁 20882
##鲈 20883
##鲍 20884
##鲑 20885
##鲛 20886
##鲜 20887
##鲟 20888
##鲢 20889
##鲤 20890
##鲨 20891
##鲫 20892
##鲱 20893
##鲲 20894
##鲶 20895
##鲷 20896
##鲸 20897
##鳃 20898
##鳄 20899
##鳅 20900
##鳌 20901
##鳍 20902
##鳕 20903
##鳖 20904
##鳗 20905
##鳝 20906
##鳞 20907
##鳥 20908
##鳩 20909
##鳳 20910
##鳴 20911
##鳶 20912
##鴉 20913
##鴕 20914
##鴛 20915
##鴦 20916
##鴨 20917
##鴻 20918
##鴿 20919
##鵑 20920
##鵜 20921
##鵝 20922
##鵡 20923
##鵬 20924
##鵰 20925
##鵲 20926
##鶘 20927
##鶩 20928
##鶯 20929
##鶴 20930
##鷗 20931
##鷲 20932
##鷹 20933
##鷺 20934
##鸚 20935
##鸞 20936
##鸟 20937
##鸠 20938
##鸡 20939
##鸢 20940
##鸣 20941
##鸥 20942
##鸦 20943
##鸨 20944
##鸪 20945
##鸭 20946
##鸯 20947
##鸳 20948
##鸵 20949
##鸽 20950
##鸾 20951
##鸿 20952
##鹂 20953
##鹃 20954
##鹄 20955
##鹅 20956
##鹈 20957
##鹉 20958
##鹊 20959
##鹌 20960
##鹏 20961
##鹑 20962
##鹕 20963
##鹘 20964
##鹜 20965
##鹞 20966
##鹤 20967
##鹦 20968
##鹧 20969
##鹫 20970
##鹭 20971
##鹰 20972
##鹳 20973
##鹵 20974
##鹹 20975
##鹼 20976
##鹽 20977
##鹿 20978
##麂 20979
##麋 20980
##麒 20981
##麓 20982
##麗 20983
##麝 20984
##麟 20985
##麥 20986
##麦 20987
##麩 20988
##麴 20989
##麵 20990
##麸 20991
##麺 20992
##麻 20993
##麼 20994
##麽 20995
##麾 20996
##黃 20997
##黄 20998
##黍 20999
##黎 21000
##黏 21001
##黑 21002
##黒 21003
##黔 21004
##默 21005
##黛 21006
##黜 21007
##黝 21008
##點 21009
##黠 21010
##黨 21011
##黯 21012
##黴 21013
##鼋 21014
##鼎 21015
##鼐 21016
##鼓 21017
##鼠 21018
##鼬 21019
##鼹 21020
##鼻 21021
##鼾 21022
##齁 21023
##齊 21024
##齋 21025
##齐 21026
##齒 21027
##齡 21028
##齢 21029
##齣 21030
##齦 21031
##齿 21032
##龄 21033
##龅 21034
##龈 21035
##龊 21036
##龋 21037
##龌 21038
##龍 21039
##龐 21040
##龔 21041
##龕 21042
##龙 21043
##龚 21044
##龛 21045
##龜 21046
##龟 21047
##︰ 21048
##︱ 21049
##︶ 21050
##︿ 21051
##﹁ 21052
##﹂ 21053
##﹍ 21054
##﹏ 21055
##﹐ 21056
##﹑ 21057
##﹒ 21058
##﹔ 21059
##﹕ 21060
##﹖ 21061
##﹗ 21062
##﹙ 21063
##﹚ 21064
##﹝ 21065
##﹞ 21066
##﹡ 21067
##﹣ 21068
##！ 21069
##＂ 21070
##＃ 21071
##＄ 21072
##％ 21073
##＆ 21074
##＇ 21075
##（ 21076
##） 21077
##＊ 21078
##， 21079
##－ 21080
##． 21081
##／ 21082
##： 21083
##； 21084
##＜ 21085
##？ 21086
##＠ 21087
##［ 21088
##＼ 21089
##］ 21090
##＾ 21091
##＿ 21092
##｀ 21093
##ｆ 21094
##ｈ 21095
##ｊ 21096
##ｕ 21097
##ｗ 21098
##ｚ 21099
##｛ 21100
##｝ 21101
##｡ 21102
##｢ 21103
##｣ 21104
##､ 21105
##･ 21106
##ｯ 21107
##ｰ 21108
##ｲ 21109
##ｸ 21110
##ｼ 21111
##ｽ 21112
##ﾄ 21113
##ﾉ 21114
##ﾌ 21115
##ﾗ 21116
##ﾙ 21117
##ﾝ 21118
##ﾞ 21119
##ﾟ 21120
##￣ 21121
##￥ 21122
##👍 21123
##🔥 21124
##😂 21125
##😎 21126
